{
    "<sos>": 0,
    "<eos>": 1,
    "<pad>": 2,
    "<s>": 3,
    "</s>": 4,
    "<unk>": 5,
    "<mask>": 6,
    "!": 7,
    "\"": 8,
    "$": 9,
    "%": 10,
    "&": 11,
    "'": 12,
    "+": 13,
    ",": 14,
    "-": 15,
    ".": 16,
    "/": 17,
    "0": 18,
    "1": 19,
    "2": 20,
    "3": 21,
    "4": 22,
    "5": 23,
    "6": 24,
    "7": 25,
    "8": 26,
    "9": 27,
    ":": 28,
    ";": 29,
    "?": 30,
    "A": 31,
    "B": 32,
    "C": 33,
    "D": 34,
    "E": 35,
    "F": 36,
    "G": 37,
    "H": 38,
    "I": 39,
    "J": 40,
    "K": 41,
    "L": 42,
    "M": 43,
    "N": 44,
    "O": 45,
    "P": 46,
    "Q": 47,
    "R": 48,
    "S": 49,
    "T": 50,
    "U": 51,
    "V": 52,
    "W": 53,
    "X": 54,
    "Y": 55,
    "Z": 56,
    "a": 57,
    "b": 58,
    "c": 59,
    "d": 60,
    "e": 61,
    "f": 62,
    "g": 63,
    "h": 64,
    "i": 65,
    "j": 66,
    "k": 67,
    "l": 68,
    "m": 69,
    "n": 70,
    "o": 71,
    "p": 72,
    "q": 73,
    "r": 74,
    "s": 75,
    "t": 76,
    "u": 77,
    "v": 78,
    "w": 79,
    "x": 80,
    "y": 81,
    "z": 82,
    "­": 83,
    "º": 84,
    "ç": 85,
    "é": 86,
    "ö": 87,
    "ú": 88,
    "а": 89,
    "–": 90,
    "—": 91,
    "‘": 92,
    "’": 93,
    "₂": 94,
    "€": 95,
    "ou": 96,
    "th": 97,
    "in": 98,
    "re": 99,
    "to": 100,
    "you": 101,
    "an": 102,
    "er": 103,
    "at": 104,
    "is": 105,
    "on": 106,
    "he": 107,
    "the": 108,
    "me": 109,
    "ing": 110,
    "ed": 111,
    "as": 112,
    "ve": 113,
    "ll": 114,
    "or": 115,
    "om": 116,
    "en": 117,
    "st": 118,
    "ar": 119,
    "it": 120,
    "le": 121,
    "no": 122,
    "ha": 123,
    "be": 124,
    "Tom": 125,
    "do": 126,
    "se": 127,
    "id": 128,
    "of": 129,
    "ke": 130,
    "ay": 131,
    "ld": 132,
    "li": 133,
    "hat": 134,
    "that": 135,
    "go": 136,
    "The": 137,
    "ch": 138,
    "You": 139,
    "ver": 140,
    "al": 141,
    "He": 142,
    "was": 143,
    "we": 144,
    "all": 145,
    "ho": 146,
    "for": 147,
    "gh": 148,
    "wi": 149,
    "have": 150,
    "ant": 151,
    "lo": 152,
    "ne": 153,
    "one": 154,
    "are": 155,
    "ti": 156,
    "ri": 157,
    "et": 158,
    "es": 159,
    "now": 160,
    "ad": 161,
    "ro": 162,
    "ould": 163,
    "your": 164,
    "want": 165,
    "so": 166,
    "ght": 167,
    "this": 168,
    "don": 169,
    "ce": 170,
    "his": 171,
    "out": 172,
    "can": 173,
    "We": 174,
    "te": 175,
    "my": 176,
    "and": 177,
    "not": 178,
    "hi": 179,
    "ly": 180,
    "know": 181,
    "us": 182,
    "ab": 183,
    "un": 184,
    "did": 185,
    "like": 186,
    "very": 187,
    "thing": 188,
    "with": 189,
    "ok": 190,
    "It": 191,
    "here": 192,
    "She": 193,
    "pp": 194,
    "fe": 195,
    "any": 196,
    "mo": 197,
    "ac": 198,
    "ink": 199,
    "co": 200,
    "su": 201,
    "ter": 202,
    "od": 203,
    "ther": 204,
    "ake": 205,
    "pe": 206,
    "ust": 207,
    "ic": 208,
    "ir": 209,
    "what": 210,
    "ent": 211,
    "ow": 212,
    "tr": 213,
    "ain": 214,
    "wor": 215,
    "think": 216,
    "him": 217,
    "What": 218,
    "day": 219,
    "ag": 220,
    "ion": 221,
    "Do": 222,
    "time": 223,
    "get": 224,
    "some": 225,
    "am": 226,
    "ut": 227,
    "end": 228,
    "ur": 229,
    "up": 230,
    "pl": 231,
    "They": 232,
    "bo": 233,
    "about": 234,
    "sa": 235,
    "sh": 236,
    "were": 237,
    "ave": 238,
    "de": 239,
    "ry": 240,
    "way": 241,
    "see": 242,
    "ong": 243,
    "ally": 244,
    "her": 245,
    "didn": 246,
    "This": 247,
    "That": 248,
    "ary": 249,
    "ss": 250,
    "fr": 251,
    "How": 252,
    "had": 253,
    "po": 254,
    "hy": 255,
    "if": 256,
    "happ": 257,
    "ex": 258,
    "red": 259,
    "ple": 260,
    "Don": 261,
    "will": 262,
    "need": 263,
    "has": 264,
    "ind": 265,
    "nt": 266,
    "alk": 267,
    "ate": 268,
    "ak": 269,
    "Are": 270,
    "ight": 271,
    "going": 272,
    "sto": 273,
    "work": 274,
    "ill": 275,
    "ard": 276,
    "ive": 277,
    "should": 278,
    "ase": 279,
    "just": 280,
    "ul": 281,
    "come": 282,
    "look": 283,
    "fo": 284,
    "ast": 285,
    "good": 286,
    "hel": 287,
    "qu": 288,
    "con": 289,
    "help": 290,
    "Mary": 291,
    "est": 292,
    "read": 293,
    "hen": 294,
    "art": 295,
    "how": 296,
    "by": 297,
    "would": 298,
    "more": 299,
    "ang": 300,
    "com": 301,
    "ear": 302,
    "el": 303,
    "there": 304,
    "au": 305,
    "ought": 306,
    "take": 307,
    "pro": 308,
    "ten": 309,
    "My": 310,
    "tell": 311,
    "got": 312,
    "could": 313,
    "der": 314,
    "ame": 315,
    "really": 316,
    "from": 317,
    "fa": 318,
    "per": 319,
    "Why": 320,
    "fri": 321,
    "oun": 322,
    "ble": 323,
    "our": 324,
    "ep": 325,
    "il": 326,
    "ct": 327,
    "every": 328,
    "does": 329,
    "talk": 330,
    "ack": 331,
    "ren": 332,
    "ish": 333,
    "ation": 334,
    "ide": 335,
    "friend": 336,
    "been": 337,
    "new": 338,
    "ck": 339,
    "pr": 340,
    "never": 341,
    "pre": 342,
    "say": 343,
    "jo": 344,
    "than": 345,
    "eve": 346,
    "ous": 347,
    "make": 348,
    "mu": 349,
    "ig": 350,
    "too": 351,
    "ach": 352,
    "Is": 353,
    "ol": 354,
    "ree": 355,
    "row": 356,
    "There": 357,
    "lf": 358,
    "sp": 359,
    "spe": 360,
    "Can": 361,
    "ine": 362,
    "ask": 363,
    "ound": 364,
    "but": 365,
    "home": 366,
    "happen": 367,
    "car": 368,
    "im": 369,
    "mor": 370,
    "something": 371,
    "eat": 372,
    "much": 373,
    "right": 374,
    "long": 375,
    "cho": 376,
    "ice": 377,
    "off": 378,
    "tter": 379,
    "mb": 380,
    "wr": 381,
    "book": 382,
    "who": 383,
    "ite": 384,
    "Let": 385,
    "self": 386,
    "able": 387,
    "won": 388,
    "man": 389,
    "gl": 390,
    "oney": 391,
    "ap": 392,
    "ud": 393,
    "feel": 394,
    "Did": 395,
    "night": 396,
    "ved": 397,
    "bod": 398,
    "they": 399,
    "ning": 400,
    "body": 401,
    "money": 402,
    "she": 403,
    "sure": 404,
    "thought": 405,
    "back": 406,
    "bus": 407,
    "last": 408,
    "care": 409,
    "mad": 410,
    "other": 411,
    "ort": 412,
    "wn": 413,
    "mis": 414,
    "love": 415,
    "app": 416,
    "when": 417,
    "ful": 418,
    "bu": 419,
    "af": 420,
    "ough": 421,
    "No": 422,
    "dr": 423,
    "anything": 424,
    "lot": 425,
    "ried": 426,
    "under": 427,
    "di": 428,
    "doesn": 429,
    "age": 430,
    "old": 431,
    "fore": 432,
    "told": 433,
    "wat": 434,
    "ge": 435,
    "gu": 436,
    "ople": 437,
    "lease": 438,
    "hed": 439,
    "Please": 440,
    "again": 441,
    "stand": 442,
    "ure": 443,
    "must": 444,
    "itt": 445,
    "Where": 446,
    "try": 447,
    "give": 448,
    "ild": 449,
    "room": 450,
    "made": 451,
    "wo": 452,
    "ess": 453,
    "dis": 454,
    "where": 455,
    "speak": 456,
    "rest": 457,
    "ans": 458,
    "went": 459,
    "ouse": 460,
    "tion": 461,
    "said": 462,
    "Who": 463,
    "beli": 464,
    "live": 465,
    "stud": 466,
    "If": 467,
    "ers": 468,
    "ready": 469,
    "ty": 470,
    "pen": 471,
    "ving": 472,
    "ick": 473,
    "play": 474,
    "cle": 475,
    "house": 476,
    "happy": 477,
    "ways": 478,
    "ass": 479,
    "people": 480,
    "call": 481,
    "year": 482,
    "still": 483,
    "ever": 484,
    "them": 485,
    "ait": 486,
    "rench": 487,
    "always": 488,
    "French": 489,
    "ting": 490,
    "better": 491,
    "urn": 492,
    "ment": 493,
    "believe": 494,
    "only": 495,
    "doing": 496,
    "stay": 497,
    "Have": 498,
    "over": 499,
    "today": 500,
    "many": 501,
    "clo": 502,
    "job": 503,
    "leave": 504,
    "ted": 505,
    "chool": 506,
    "ra": 507,
    "before": 508,
    "ome": 509,
    "down": 510,
    "mber": 511,
    "used": 512,
    "child": 513,
    "hand": 514,
    "hard": 515,
    "tru": 516,
    "bro": 517,
    "school": 518,
    "wait": 519,
    "father": 520,
    "ittle": 521,
    "lu": 522,
    "little": 523,
    "vi": 524,
    "gre": 525,
    "ft": 526,
    "sho": 527,
    "isn": 528,
    "br": 529,
    "fi": 530,
    "blem": 531,
    "problem": 532,
    "well": 533,
    "mar": 534,
    "ity": 535,
    "son": 536,
    "after": 537,
    "Every": 538,
    "understand": 539,
    "dog": 540,
    "ci": 541,
    "wanted": 542,
    "ts": 543,
    "plan": 544,
    "erday": 545,
    "esterday": 546,
    "fin": 547,
    "leep": 548,
    "ise": 549,
    "late": 550,
    "part": 551,
    "use": 552,
    "ance": 553,
    "sed": 554,
    "alone": 555,
    "ek": 556,
    "dre": 557,
    "happened": 558,
    "left": 559,
    "find": 560,
    "sm": 561,
    "cau": 562,
    "tomor": 563,
    "tomorrow": 564,
    "yesterday": 565,
    "asked": 566,
    "week": 567,
    "enough": 568,
    "gr": 569,
    "teach": 570,
    "saw": 571,
    "meet": 572,
    "aid": 573,
    "came": 574,
    "ised": 575,
    "When": 576,
    "buy": 577,
    "drink": 578,
    "cat": 579,
    "friends": 580,
    "dif": 581,
    "three": 582,
    "turn": 583,
    "let": 584,
    "done": 585,
    "Bo": 586,
    "quest": 587,
    "act": 588,
    "put": 589,
    "two": 590,
    "into": 591,
    "sur": 592,
    "che": 593,
    "please": 594,
    "xt": 595,
    "tor": 596,
    "hur": 597,
    "door": 598,
    "win": 599,
    "mer": 600,
    "bed": 601,
    "start": 602,
    "most": 603,
    "ist": 604,
    "reme": 605,
    "question": 606,
    "ner": 607,
    "orry": 608,
    "everything": 609,
    "seem": 610,
    "mind": 611,
    "irst": 612,
    "hear": 613,
    "why": 614,
    "hope": 615,
    "cid": 616,
    "irl": 617,
    "next": 618,
    "pare": 619,
    "girl": 620,
    "bor": 621,
    "walk": 622,
    "away": 623,
    "busy": 624,
    "wer": 625,
    "sing": 626,
    "Would": 627,
    "ru": 628,
    "name": 629,
    "adv": 630,
    "ace": 631,
    "wrong": 632,
    "kind": 633,
    "fun": 634,
    "pt": 635,
    "mother": 636,
    "ank": 637,
    "port": 638,
    "whi": 639,
    "mat": 640,
    "cre": 641,
    "hone": 642,
    "sleep": 643,
    "show": 644,
    "took": 645,
    "ence": 646,
    "ated": 647,
    "chang": 648,
    "iz": 649,
    "first": 650,
    "ston": 651,
    "min": 652,
    "may": 653,
    "arn": 654,
    "comp": 655,
    "gave": 656,
    "med": 657,
    "idea": 658,
    "Boston": 659,
    "ose": 660,
    "En": 661,
    "aw": 662,
    "sit": 663,
    "tic": 664,
    "tired": 665,
    "sorry": 666,
    "wasn": 667,
    "remember": 668,
    "Some": 669,
    "years": 670,
    "life": 671,
    "bl": 672,
    "rain": 673,
    "nothing": 674,
    "par": 675,
    "soon": 676,
    "cl": 677,
    "fam": 678,
    "ser": 679,
    "being": 680,
    "keep": 681,
    "anyone": 682,
    "fic": 683,
    "things": 684,
    "couldn": 685,
    "Your": 686,
    "supp": 687,
    "big": 688,
    "bad": 689,
    "side": 690,
    "Engl": 691,
    "yet": 692,
    "knew": 693,
    "already": 694,
    "His": 695,
    "mp": 696,
    "open": 697,
    "sent": 698,
    "watch": 699,
    "dri": 700,
    "heard": 701,
    "looking": 702,
    "light": 703,
    "inte": 704,
    "without": 705,
    "interest": 706,
    "bre": 707,
    "teacher": 708,
    "morning": 709,
    "word": 710,
    "air": 711,
    "found": 712,
    "bit": 713,
    "their": 714,
    "cer": 715,
    "int": 716,
    "best": 717,
    "boy": 718,
    "seen": 719,
    "lost": 720,
    "children": 721,
    "ily": 722,
    "water": 723,
    "Jap": 724,
    "these": 725,
    "Japan": 726,
    "beg": 727,
    "same": 728,
    "May": 729,
    "English": 730,
    "train": 731,
    "pain": 732,
    "pic": 733,
    "often": 734,
    "pect": 735,
    "nts": 736,
    "haven": 737,
    "eas": 738,
    "ull": 739,
    "All": 740,
    "Could": 741,
    "mon": 742,
    "ath": 743,
    "plain": 744,
    "cold": 745,
    "study": 746,
    "phone": 747,
    "les": 748,
    "answer": 749,
    "afr": 750,
    "ible": 751,
    "afraid": 752,
    "sis": 753,
    "vis": 754,
    "wish": 755,
    "cause": 756,
    "ng": 757,
    "str": 758,
    "aking": 759,
    "run": 760,
    "lt": 761,
    "stop": 762,
    "person": 763,
    "dress": 764,
    "yourself": 765,
    "young": 766,
    "party": 767,
    "bab": 768,
    "ult": 769,
    "ious": 770,
    "pay": 771,
    "ished": 772,
    "learn": 773,
    "else": 774,
    "place": 775,
    "brother": 776,
    "des": 777,
    "cou": 778,
    "days": 779,
    "fast": 780,
    "ually": 781,
    "pret": 782,
    "ell": 783,
    "parents": 784,
    "less": 785,
    "wim": 786,
    "arm": 787,
    "talking": 788,
    "while": 789,
    "hour": 790,
    "pi": 791,
    "Th": 792,
    "student": 793,
    "ince": 794,
    "wants": 795,
    "isten": 796,
    "even": 797,
    "married": 798,
    "matter": 799,
    "might": 800,
    "swim": 801,
    "doc": 802,
    "myself": 803,
    "around": 804,
    "mistake": 805,
    "getting": 806,
    "gg": 807,
    "times": 808,
    "glad": 809,
    "bought": 810,
    "letter": 811,
    "surpr": 812,
    "few": 813,
    "sk": 814,
    "ail": 815,
    "sister": 816,
    "nice": 817,
    "great": 818,
    "Be": 819,
    "food": 820,
    "prom": 821,
    "ited": 822,
    "hair": 823,
    "vor": 824,
    "another": 825,
    "ign": 826,
    "inner": 827,
    "early": 828,
    "pri": 829,
    "coming": 830,
    "true": 831,
    "arri": 832,
    "inv": 833,
    "low": 834,
    "offe": 835,
    "looks": 836,
    "auti": 837,
    "top": 838,
    "men": 839,
    "ced": 840,
    "ket": 841,
    "knows": 842,
    "autiful": 843,
    "listen": 844,
    "joy": 845,
    "ey": 846,
    "poss": 847,
    "met": 848,
    "beautiful": 849,
    "hurt": 850,
    "own": 851,
    "expect": 852,
    "tri": 853,
    "such": 854,
    "hun": 855,
    "ies": 856,
    "cess": 857,
    "break": 858,
    "doctor": 859,
    "tried": 860,
    "head": 861,
    "wonder": 862,
    "wouldn": 863,
    "ather": 864,
    "full": 865,
    "books": 866,
    "movi": 867,
    "truth": 868,
    "ars": 869,
    "mean": 870,
    "because": 871,
    "writ": 872,
    "cident": 873,
    "offee": 874,
    "set": 875,
    "ture": 876,
    "meeting": 877,
    "mine": 878,
    "table": 879,
    "anymore": 880,
    "picture": 881,
    "cus": 882,
    "diffic": 883,
    "coffee": 884,
    "dinner": 885,
    "ny": 886,
    "aren": 887,
    "almost": 888,
    "anger": 889,
    "enjoy": 890,
    "far": 891,
    "oud": 892,
    "Tell": 893,
    "ater": 894,
    "once": 895,
    "key": 896,
    "write": 897,
    "du": 898,
    "shi": 899,
    "rent": 900,
    "import": 901,
    "careful": 902,
    "gether": 903,
    "aper": 904,
    "together": 905,
    "cont": 906,
    "Everyone": 907,
    "spend": 908,
    "kid": 909,
    "si": 910,
    "change": 911,
    "hate": 912,
    "family": 913,
    "felt": 914,
    "je": 915,
    "accident": 916,
    "ses": 917,
    "lice": 918,
    "vo": 919,
    "seems": 920,
    "In": 921,
    "tonight": 922,
    "ven": 923,
    "likes": 924,
    "kill": 925,
    "someone": 926,
    "sc": 927,
    "press": 928,
    "diffe": 929,
    "cor": 930,
    "dow": 931,
    "cook": 932,
    "each": 933,
    "working": 934,
    "aught": 935,
    "waiting": 936,
    "Ch": 937,
    "world": 938,
    "easy": 939,
    "sick": 940,
    "shouldn": 941,
    "trust": 942,
    "Does": 943,
    "ason": 944,
    "gone": 945,
    "sha": 946,
    "wear": 947,
    "unch": 948,
    "pretty": 949,
    "miss": 950,
    "Get": 951,
    "forget": 952,
    "drive": 953,
    "died": 954,
    "bir": 955,
    "Will": 956,
    "luck": 957,
    "turned": 958,
    "llow": 959,
    "wife": 960,
    "sound": 961,
    "both": 962,
    "trying": 963,
    "pped": 964,
    "started": 965,
    "ef": 966,
    "log": 967,
    "Give": 968,
    "possible": 969,
    "finished": 970,
    "Take": 971,
    "small": 972,
    "ured": 973,
    "nu": 974,
    "longer": 975,
    "ize": 976,
    "important": 977,
    "sen": 978,
    "station": 979,
    "difficult": 980,
    "ps": 981,
    "pass": 982,
    "surprised": 983,
    "police": 984,
    "looked": 985,
    "window": 986,
    "dec": 987,
    "guy": 988,
    "suc": 989,
    "lau": 990,
    "sat": 991,
    "mus": 992,
    "ward": 993,
    "ste": 994,
    "high": 995,
    "favor": 996,
    "noon": 997,
    "Thank": 998,
    "lunch": 999,
    "agree": 1000,
    "quite": 1001,
    "zy": 1002,
    "ating": 1003,
    "ute": 1004,
    "fire": 1005,
    "ese": 1006,
    "osed": 1007,
    "Stop": 1008,
    "St": 1009,
    "ago": 1010,
    "ot": 1011,
    "those": 1012,
    "weather": 1013,
    "questions": 1014,
    "park": 1015,
    "reason": 1016,
    "ces": 1017,
    "ycle": 1018,
    "class": 1019,
    "follow": 1020,
    "count": 1021,
    "iness": 1022,
    "game": 1023,
    "near": 1024,
    "forgot": 1025,
    "movie": 1026,
    "cent": 1027,
    "danger": 1028,
    "qui": 1029,
    "makes": 1030,
    "eyes": 1031,
    "free": 1032,
    "lve": 1033,
    "ark": 1034,
    "til": 1035,
    "exact": 1036,
    "reading": 1037,
    "supposed": 1038,
    "Come": 1039,
    "sid": 1040,
    "story": 1041,
    "music": 1042,
    "cert": 1043,
    "lic": 1044,
    "office": 1045,
    "Lo": 1046,
    "den": 1047,
    "month": 1048,
    "ouble": 1049,
    "having": 1050,
    "cked": 1051,
    "fish": 1052,
    "town": 1053,
    "road": 1054,
    "TV": 1055,
    "coun": 1056,
    "la": 1057,
    "Nobody": 1058,
    "until": 1059,
    "arge": 1060,
    "himself": 1061,
    "close": 1062,
    "led": 1063,
    "anybody": 1064,
    "upid": 1065,
    "stupid": 1066,
    "yours": 1067,
    "worry": 1068,
    "everyone": 1069,
    "bic": 1070,
    "rough": 1071,
    "angry": 1072,
    "ction": 1073,
    "att": 1074,
    "Just": 1075,
    "fer": 1076,
    "called": 1077,
    "serious": 1078,
    "fig": 1079,
    "ran": 1080,
    "since": 1081,
    "hours": 1082,
    "advice": 1083,
    "hung": 1084,
    ".\"": 1085,
    "song": 1086,
    "um": 1087,
    "reci": 1088,
    "als": 1089,
    "feeling": 1090,
    "appo": 1091,
    "guess": 1092,
    "Whi": 1093,
    "tre": 1094,
    "lives": 1095,
    "Go": 1096,
    "says": 1097,
    "playing": 1098,
    "Amer": 1099,
    "utes": 1100,
    "broke": 1101,
    "afternoon": 1102,
    "exactly": 1103,
    "bicycle": 1104,
    "Our": 1105,
    "ali": 1106,
    "decid": 1107,
    "its": 1108,
    "dream": 1109,
    "caught": 1110,
    "op": 1111,
    "alth": 1112,
    "fell": 1113,
    "safe": 1114,
    "explain": 1115,
    "minutes": 1116,
    "ta": 1117,
    "secre": 1118,
    "allow": 1119,
    "trouble": 1120,
    "bet": 1121,
    "usually": 1122,
    "decided": 1123,
    "law": 1124,
    "tall": 1125,
    "fect": 1126,
    "appreci": 1127,
    "students": 1128,
    "Japanese": 1129,
    "Her": 1130,
    "test": 1131,
    "thinking": 1132,
    "probab": 1133,
    "interested": 1134,
    "cry": 1135,
    "sal": 1136,
    "box": 1137,
    "cond": 1138,
    "interesting": 1139,
    "cr": 1140,
    "kis": 1141,
    "thir": 1142,
    "visit": 1143,
    "hot": 1144,
    "eating": 1145,
    "stre": 1146,
    "clean": 1147,
    "probably": 1148,
    "grow": 1149,
    "dead": 1150,
    "conf": 1151,
    "country": 1152,
    "angu": 1153,
    "arrived": 1154,
    "00": 1155,
    "cut": 1156,
    "ient": 1157,
    "lose": 1158,
    "ross": 1159,
    "sum": 1160,
    "ew": 1161,
    "lie": 1162,
    "born": 1163,
    "Which": 1164,
    "cost": 1165,
    "homework": 1166,
    "advised": 1167,
    "number": 1168,
    "ring": 1169,
    "form": 1170,
    "weren": 1171,
    "begin": 1172,
    "hor": 1173,
    "through": 1174,
    "tele": 1175,
    "oking": 1176,
    "langu": 1177,
    "snow": 1178,
    "Ke": 1179,
    "ended": 1180,
    "Keep": 1181,
    "spo": 1182,
    "ital": 1183,
    "Everybody": 1184,
    "flo": 1185,
    "ob": 1186,
    "res": 1187,
    "ange": 1188,
    "different": 1189,
    "appreciate": 1190,
    "unk": 1191,
    "ball": 1192,
    "daught": 1193,
    "quick": 1194,
    "coll": 1195,
    "proud": 1196,
    "finish": 1197,
    "These": 1198,
    "chance": 1199,
    "news": 1200,
    "against": 1201,
    "hands": 1202,
    "tou": 1203,
    "ative": 1204,
    "living": 1205,
    "tive": 1206,
    "ele": 1207,
    "become": 1208,
    "case": 1209,
    "ched": 1210,
    "ither": 1211,
    "later": 1212,
    "pat": 1213,
    "cap": 1214,
    "comple": 1215,
    "secret": 1216,
    "ison": 1217,
    "then": 1218,
    "kept": 1219,
    "moment": 1220,
    "catch": 1221,
    "baby": 1222,
    "Look": 1223,
    "saying": 1224,
    "company": 1225,
    "ding": 1226,
    "wine": 1227,
    "outside": 1228,
    "cur": 1229,
    "promise": 1230,
    "hungry": 1231,
    "city": 1232,
    "needs": 1233,
    "face": 1234,
    "apo": 1235,
    "sun": 1236,
    "uter": 1237,
    "inter": 1238,
    "present": 1239,
    "business": 1240,
    "strong": 1241,
    "igh": 1242,
    "adi": 1243,
    "exam": 1244,
    "trip": 1245,
    "tree": 1246,
    "taking": 1247,
    "whe": 1248,
    "health": 1249,
    "five": 1250,
    "cra": 1251,
    "ately": 1252,
    "girlfriend": 1253,
    "ned": 1254,
    "works": 1255,
    "cour": 1256,
    "gen": 1257,
    "war": 1258,
    "acce": 1259,
    "complain": 1260,
    "favorite": 1261,
    "ked": 1262,
    "making": 1263,
    "doll": 1264,
    "tely": 1265,
    "trave": 1266,
    "OK": 1267,
    "hind": 1268,
    "rich": 1269,
    "ject": 1270,
    "ger": 1271,
    "real": 1272,
    "exc": 1273,
    "build": 1274,
    "older": 1275,
    "birth": 1276,
    "behind": 1277,
    "team": 1278,
    "short": 1279,
    "shoes": 1280,
    "mess": 1281,
    "pens": 1282,
    "computer": 1283,
    "daughter": 1284,
    "dic": 1285,
    "rid": 1286,
    "point": 1287,
    "die": 1288,
    "clock": 1289,
    "paper": 1290,
    "scare": 1291,
    "ont": 1292,
    "fail": 1293,
    "apolog": 1294,
    "cam": 1295,
    "hu": 1296,
    "ied": 1297,
    "laugh": 1298,
    "mou": 1299,
    "pick": 1300,
    "discus": 1301,
    "Mon": 1302,
    "yo": 1303,
    "eaten": 1304,
    "summer": 1305,
    "ze": 1306,
    "oman": 1307,
    "pie": 1308,
    "cri": 1309,
    "tea": 1310,
    "aken": 1311,
    "hurry": 1312,
    "fully": 1313,
    "order": 1314,
    "lucky": 1315,
    "fall": 1316,
    "gard": 1317,
    "ref": 1318,
    "ton": 1319,
    "needed": 1320,
    "Maybe": 1321,
    "colle": 1322,
    "breakfast": 1323,
    "gun": 1324,
    "land": 1325,
    "paid": 1326,
    "hosp": 1327,
    "comes": 1328,
    "pu": 1329,
    "taken": 1330,
    "woman": 1331,
    "heart": 1332,
    "tel": 1333,
    "quit": 1334,
    "As": 1335,
    "mas": 1336,
    "swe": 1337,
    "stu": 1338,
    "deal": 1339,
    "perfect": 1340,
    "dark": 1341,
    "ition": 1342,
    "store": 1343,
    "stayed": 1344,
    "plane": 1345,
    "funny": 1346,
    "quickly": 1347,
    "bag": 1348,
    "ris": 1349,
    "clear": 1350,
    "ber": 1351,
    "disappo": 1352,
    "changed": 1353,
    "crazy": 1354,
    "Aust": 1355,
    "ca": 1356,
    "nis": 1357,
    "exper": 1358,
    "sense": 1359,
    "cake": 1360,
    "reco": 1361,
    "ision": 1362,
    "clothe": 1363,
    "watching": 1364,
    "cup": 1365,
    "beer": 1366,
    "sugg": 1367,
    "tennis": 1368,
    "ilk": 1369,
    "spon": 1370,
    "invited": 1371,
    "pressed": 1372,
    "decision": 1373,
    "suggest": 1374,
    "hit": 1375,
    "mit": 1376,
    "cannot": 1377,
    "worth": 1378,
    "touch": 1379,
    "band": 1380,
    "large": 1381,
    "ue": 1382,
    "ual": 1383,
    "inted": 1384,
    "respon": 1385,
    "ular": 1386,
    "fied": 1387,
    "ken": 1388,
    "ased": 1389,
    "rali": 1390,
    "street": 1391,
    "Australi": 1392,
    "clothes": 1393,
    "gar": 1394,
    "rect": 1395,
    "seat": 1396,
    "choice": 1397,
    "bring": 1398,
    "asleep": 1399,
    "drunk": 1400,
    "pensive": 1401,
    "Was": 1402,
    "dro": 1403,
    "ming": 1404,
    "hotel": 1405,
    "ush": 1406,
    "pping": 1407,
    "move": 1408,
    "suit": 1409,
    "ages": 1410,
    "expensive": 1411,
    "six": 1412,
    "hospital": 1413,
    "Sun": 1414,
    "aur": 1415,
    "sign": 1416,
    "leg": 1417,
    "ween": 1418,
    "river": 1419,
    "coat": 1420,
    "tention": 1421,
    "spent": 1422,
    "grand": 1423,
    "Australia": 1424,
    "fight": 1425,
    "vel": 1426,
    "worried": 1427,
    "restaur": 1428,
    "began": 1429,
    "quiet": 1430,
    "restaurant": 1431,
    "?\"": 1432,
    "smo": 1433,
    "lived": 1434,
    "death": 1435,
    "fix": 1436,
    "certain": 1437,
    "uation": 1438,
    "vac": 1439,
    "eng": 1440,
    "others": 1441,
    "wearing": 1442,
    "building": 1443,
    "wall": 1444,
    "goes": 1445,
    "aged": 1446,
    "worked": 1447,
    "kids": 1448,
    "became": 1449,
    "pol": 1450,
    "handle": 1451,
    "minute": 1452,
    "studying": 1453,
    "travel": 1454,
    "emp": 1455,
    "everybody": 1456,
    "az": 1457,
    "fas": 1458,
    "mail": 1459,
    "neigh": 1460,
    "loves": 1461,
    "check": 1462,
    "Try": 1463,
    "det": 1464,
    "asses": 1465,
    "ceed": 1466,
    "known": 1467,
    "ical": 1468,
    "takes": 1469,
    "fair": 1470,
    "whole": 1471,
    "shot": 1472,
    "killed": 1473,
    "vers": 1474,
    "necess": 1475,
    "ship": 1476,
    "30": 1477,
    "milk": 1478,
    "boss": 1479,
    "front": 1480,
    "telling": 1481,
    "prison": 1482,
    "situation": 1483,
    "blo": 1484,
    "report": 1485,
    "ness": 1486,
    "closed": 1487,
    "birthday": 1488,
    "scared": 1489,
    "cli": 1490,
    "cal": 1491,
    "liar": 1492,
    "conv": 1493,
    "thank": 1494,
    "rather": 1495,
    "weekend": 1496,
    "ican": 1497,
    "half": 1498,
    "Here": 1499,
    "borrow": 1500,
    "neighbor": 1501,
    "lying": 1502,
    "stopped": 1503,
    "helped": 1504,
    "problems": 1505,
    "Everything": 1506,
    "between": 1507,
    "Monday": 1508,
    "hes": 1509,
    "liked": 1510,
    "rote": 1511,
    "words": 1512,
    "aving": 1513,
    "fort": 1514,
    "gets": 1515,
    "missed": 1516,
    "figured": 1517,
    "thirty": 1518,
    "Many": 1519,
    "One": 1520,
    "umb": 1521,
    "wrote": 1522,
    "terri": 1523,
    "upset": 1524,
    "success": 1525,
    "At": 1526,
    "Re": 1527,
    "ff": 1528,
    "second": 1529,
    "ries": 1530,
    "smoking": 1531,
    "strange": 1532,
    "discuss": 1533,
    "av": 1534,
    "ma": 1535,
    "main": 1536,
    "along": 1537,
    "joke": 1538,
    "imag": 1539,
    "speaking": 1540,
    "which": 1541,
    "ized": 1542,
    "mistakes": 1543,
    "language": 1544,
    "bi": 1545,
    "either": 1546,
    "ife": 1547,
    "weight": 1548,
    "happening": 1549,
    "American": 1550,
    "diction": 1551,
    "ai": 1552,
    "fl": 1553,
    "stood": 1554,
    "dangerous": 1555,
    "patient": 1556,
    "sim": 1557,
    "inion": 1558,
    "tory": 1559,
    "forward": 1560,
    "col": 1561,
    "talked": 1562,
    "speaks": 1563,
    "broken": 1564,
    "airs": 1565,
    "allowed": 1566,
    "pian": 1567,
    "expected": 1568,
    "sider": 1569,
    "experi": 1570,
    "smoke": 1571,
    "tt": 1572,
    "rep": 1573,
    "beach": 1574,
    "address": 1575,
    "join": 1576,
    "dy": 1577,
    "hold": 1578,
    "solu": 1579,
    "prefer": 1580,
    "brought": 1581,
    "opinion": 1582,
    "garden": 1583,
    "hid": 1584,
    "pho": 1585,
    "slow": 1586,
    "evening": 1587,
    "itting": 1588,
    "dictionary": 1589,
    "gn": 1590,
    "line": 1591,
    "owe": 1592,
    "sy": 1593,
    "ene": 1594,
    "finally": 1595,
    "running": 1596,
    "deser": 1597,
    "accept": 1598,
    "sell": 1599,
    "blame": 1600,
    "necessary": 1601,
    "nor": 1602,
    "earth": 1603,
    "pared": 1604,
    "walked": 1605,
    "black": 1606,
    "Sh": 1607,
    "Were": 1608,
    "offer": 1609,
    "Someone": 1610,
    "famous": 1611,
    "fine": 1612,
    "ju": 1613,
    "list": 1614,
    "least": 1615,
    "wel": 1616,
    "seeing": 1617,
    "tax": 1618,
    "mell": 1619,
    "sport": 1620,
    "happens": 1621,
    "succeed": 1622,
    "disappointed": 1623,
    "flow": 1624,
    "rist": 1625,
    "teen": 1626,
    "likely": 1627,
    "chair": 1628,
    "ds": 1629,
    "mi": 1630,
    "novel": 1631,
    "trans": 1632,
    "consider": 1633,
    "ations": 1634,
    "writing": 1635,
    "written": 1636,
    "Christ": 1637,
    "satis": 1638,
    "Christmas": 1639,
    "Mo": 1640,
    "fre": 1641,
    "enti": 1642,
    "sold": 1643,
    "ility": 1644,
    "cial": 1645,
    "shir": 1646,
    "fut": 1647,
    "mach": 1648,
    "reali": 1649,
    "libr": 1650,
    "completely": 1651,
    "dollars": 1652,
    "camer": 1653,
    "Fr": 1654,
    "smell": 1655,
    "une": 1656,
    "sub": 1657,
    "future": 1658,
    "rope": 1659,
    "ext": 1660,
    "medic": 1661,
    "piano": 1662,
    "card": 1663,
    "sci": 1664,
    "dogs": 1665,
    "drinking": 1666,
    "cy": 1667,
    "dance": 1668,
    "pun": 1669,
    "inform": 1670,
    "rece": 1671,
    "Aren": 1672,
    "foot": 1673,
    "rence": 1674,
    "crying": 1675,
    "Sunday": 1676,
    "fat": 1677,
    "pend": 1678,
    "resu": 1679,
    "swimming": 1680,
    "Thanks": 1681,
    "apologize": 1682,
    "Pe": 1683,
    "Un": 1684,
    "ms": 1685,
    "opp": 1686,
    "sad": 1687,
    "ates": 1688,
    "ared": 1689,
    "dered": 1690,
    "poor": 1691,
    "glasses": 1692,
    "library": 1693,
    "ded": 1694,
    "scre": 1695,
    "noise": 1696,
    "lies": 1697,
    "agre": 1698,
    "uring": 1699,
    "pop": 1700,
    "hasn": 1701,
    "painting": 1702,
    "bank": 1703,
    "hus": 1704,
    "sle": 1705,
    "sus": 1706,
    "vous": 1707,
    "warm": 1708,
    "stairs": 1709,
    "arrive": 1710,
    "Stay": 1711,
    "lves": 1712,
    "whether": 1713,
    "camera": 1714,
    "husband": 1715,
    "star": 1716,
    "leaving": 1717,
    "tem": 1718,
    "somewhere": 1719,
    "ntain": 1720,
    "stor": 1721,
    "fool": 1722,
    "appro": 1723,
    "actually": 1724,
    "learned": 1725,
    "floor": 1726,
    "An": 1727,
    "bill": 1728,
    "hite": 1729,
    "mid": 1730,
    "ower": 1731,
    "rules": 1732,
    "Am": 1733,
    "Put": 1734,
    "ug": 1735,
    "regre": 1736,
    "attention": 1737,
    "wash": 1738,
    "cted": 1739,
    "nervous": 1740,
    "keys": 1741,
    "flowers": 1742,
    "People": 1743,
    "Tok": 1744,
    "fac": 1745,
    "val": 1746,
    "selves": 1747,
    "glass": 1748,
    "recogn": 1749,
    "Tokyo": 1750,
    "alive": 1751,
    "cas": 1752,
    "date": 1753,
    "stru": 1754,
    "honest": 1755,
    "lawy": 1756,
    "Now": 1757,
    "ech": 1758,
    "warn": 1759,
    "medi": 1760,
    "kets": 1761,
    "loved": 1762,
    "solve": 1763,
    "tee": 1764,
    "guit": 1765,
    "opened": 1766,
    "information": 1767,
    "gent": 1768,
    "rell": 1769,
    "anim": 1770,
    "lied": 1771,
    "somebody": 1772,
    "spaper": 1773,
    "showed": 1774,
    "suppose": 1775,
    "risk": 1776,
    "umbrell": 1777,
    "radi": 1778,
    "waste": 1779,
    "uncle": 1780,
    "bother": 1781,
    "sleeping": 1782,
    "dou": 1783,
    "kn": 1784,
    "arr": 1785,
    "willing": 1786,
    "newspaper": 1787,
    "Nothing": 1788,
    "desk": 1789,
    "Af": 1790,
    "vol": 1791,
    "ined": 1792,
    "listening": 1793,
    "kiss": 1794,
    "mountain": 1795,
    "photo": 1796,
    "guitar": 1797,
    "uty": 1798,
    "immedi": 1799,
    "given": 1800,
    "shopping": 1801,
    "girls": 1802,
    "medicine": 1803,
    "bath": 1804,
    "ib": 1805,
    "atur": 1806,
    "argu": 1807,
    "hol": 1808,
    "post": 1809,
    "speech": 1810,
    "correct": 1811,
    "vacation": 1812,
    "color": 1813,
    "radio": 1814,
    "Any": 1815,
    "white": 1816,
    "ination": 1817,
    "enter": 1818,
    "custo": 1819,
    "college": 1820,
    "vent": 1821,
    "ants": 1822,
    "uni": 1823,
    "dist": 1824,
    "piece": 1825,
    "shirt": 1826,
    "umbrella": 1827,
    "doub": 1828,
    "After": 1829,
    "ged": 1830,
    "tice": 1831,
    "cell": 1832,
    "ager": 1833,
    "lue": 1834,
    "ticket": 1835,
    "promised": 1836,
    "horse": 1837,
    "spoke": 1838,
    "storm": 1839,
    "during": 1840,
    "uit": 1841,
    "dest": 1842,
    "smart": 1843,
    "invol": 1844,
    "sounds": 1845,
    "regret": 1846,
    "dden": 1847,
    "four": 1848,
    "ier": 1849,
    "sudden": 1850,
    "telephone": 1851,
    "lawyer": 1852,
    "ie": 1853,
    "rel": 1854,
    "means": 1855,
    "ford": 1856,
    "abroad": 1857,
    "thinks": 1858,
    "shut": 1859,
    "gif": 1860,
    "sil": 1861,
    "vid": 1862,
    "tered": 1863,
    "moved": 1864,
    "ics": 1865,
    "save": 1866,
    "depend": 1867,
    "vious": 1868,
    "Something": 1869,
    "dressed": 1870,
    "satisfied": 1871,
    "New": 1872,
    "cu": 1873,
    "ins": 1874,
    "trac": 1875,
    "native": 1876,
    "wed": 1877,
    "belong": 1878,
    "tie": 1879,
    "sometimes": 1880,
    "plans": 1881,
    "prepared": 1882,
    "asking": 1883,
    "Both": 1884,
    "vision": 1885,
    "respe": 1886,
    "ature": 1887,
    "ings": 1888,
    "across": 1889,
    "boyfriend": 1890,
    "couple": 1891,
    "pictures": 1892,
    "contin": 1893,
    "immediately": 1894,
    "bur": 1895,
    "lay": 1896,
    "power": 1897,
    "sever": 1898,
    "apart": 1899,
    "apple": 1900,
    "Not": 1901,
    "waited": 1902,
    "message": 1903,
    "agreed": 1904,
    "cred": 1905,
    "inj": 1906,
    "ond": 1907,
    "afford": 1908,
    "On": 1909,
    "cute": 1910,
    "egg": 1911,
    "flu": 1912,
    "ph": 1913,
    "ride": 1914,
    "send": 1915,
    "tal": 1916,
    "earli": 1917,
    "carefully": 1918,
    "harder": 1919,
    "involved": 1920,
    "emb": 1921,
    "oc": 1922,
    "pur": 1923,
    "whatever": 1924,
    "concert": 1925,
    "affic": 1926,
    "slept": 1927,
    "Ger": 1928,
    "Le": 1929,
    "Since": 1930,
    "cross": 1931,
    "lend": 1932,
    "twi": 1933,
    "vered": 1934,
    "hop": 1935,
    "hose": 1936,
    "ade": 1937,
    "foreign": 1938,
    "cated": 1939,
    "shower": 1940,
    "guys": 1941,
    "To": 1942,
    "cha": 1943,
    "weir": 1944,
    "ica": 1945,
    "staying": 1946,
    "serv": 1947,
    "driving": 1948,
    "price": 1949,
    "recei": 1950,
    "sou": 1951,
    "inside": 1952,
    "remain": 1953,
    "ork": 1954,
    "arrest": 1955,
    "deep": 1956,
    "ilt": 1957,
    "choose": 1958,
    "easily": 1959,
    "contro": 1960,
    "America": 1961,
    "Sorry": 1962,
    "Those": 1963,
    "ator": 1964,
    "wake": 1965,
    "zed": 1966,
    "thre": 1967,
    "stick": 1968,
    "traffic": 1969,
    "worse": 1970,
    "propo": 1971,
    "fault": 1972,
    "women": 1973,
    "played": 1974,
    "fired": 1975,
    "raining": 1976,
    "several": 1977,
    "lock": 1978,
    "bott": 1979,
    "figure": 1980,
    "twice": 1981,
    "19": 1982,
    "bar": 1983,
    "cused": 1984,
    "gan": 1985,
    "erg": 1986,
    "memor": 1987,
    "prote": 1988,
    "carry": 1989,
    "ski": 1990,
    "difference": 1991,
    "passed": 1992,
    "jump": 1993,
    "Turn": 1994,
    "ghed": 1995,
    "mag": 1996,
    "past": 1997,
    "throw": 1998,
    "though": 1999,
    "ened": 2000,
    "loy": 2001,
    "rodu": 2002,
    "special": 2003,
    "appear": 2004,
    "wood": 2005,
    "avy": 2006,
    "deserve": 2007,
    "Ex": 2008,
    "dred": 2009,
    "len": 2010,
    "na": 2011,
    "tain": 2012,
    "ats": 2013,
    "held": 2014,
    "bey": 2015,
    "ortun": 2016,
    "boys": 2017,
    "movies": 2018,
    "mission": 2019,
    "pack": 2020,
    "impossible": 2021,
    "shop": 2022,
    "television": 2023,
    "empty": 2024,
    "machine": 2025,
    "earlier": 2026,
    "So": 2027,
    "ahead": 2028,
    "dan": 2029,
    "lake": 2030,
    "stra": 2031,
    "concer": 2032,
    "comfor": 2033,
    "Isn": 2034,
    "hardly": 2035,
    "enjoyed": 2036,
    "lax": 2037,
    "stuff": 2038,
    "climb": 2039,
    "Make": 2040,
    "Show": 2041,
    "blue": 2042,
    "mand": 2043,
    "pull": 2044,
    "relax": 2045,
    "meat": 2046,
    "impressed": 2047,
    "refused": 2048,
    "pub": 2049,
    "crow": 2050,
    "wind": 2051,
    "lear": 2052,
    "seven": 2053,
    "herself": 2054,
    "introdu": 2055,
    "younger": 2056,
    "wonderful": 2057,
    "decide": 2058,
    "kissed": 2059,
    "terrible": 2060,
    "For": 2061,
    "cil": 2062,
    "ile": 2063,
    "king": 2064,
    "idge": 2065,
    "ideas": 2066,
    "marry": 2067,
    "laughed": 2068,
    "weird": 2069,
    "Se": 2070,
    "jud": 2071,
    "remind": 2072,
    "hood": 2073,
    "anywhere": 2074,
    "poc": 2075,
    "posit": 2076,
    "pleas": 2077,
    "itted": 2078,
    "painted": 2079,
    "beginning": 2080,
    "injured": 2081,
    "clu": 2082,
    "organ": 2083,
    "lead": 2084,
    "also": 2085,
    "acting": 2086,
    "prove": 2087,
    "eye": 2088,
    "cooking": 2089,
    "attend": 2090,
    "embarr": 2091,
    "Bring": 2092,
    "fing": 2093,
    "rely": 2094,
    "heavy": 2095,
    "iday": 2096,
    "boat": 2097,
    "aked": 2098,
    "iling": 2099,
    "drank": 2100,
    "leaves": 2101,
    "driver": 2102,
    "surprise": 2103,
    "hundred": 2104,
    "failed": 2105,
    "convin": 2106,
    "experience": 2107,
    "Should": 2108,
    "respect": 2109,
    "comfortable": 2110,
    "public": 2111,
    "ctive": 2112,
    "dle": 2113,
    "sight": 2114,
    "absent": 2115,
    "singing": 2116,
    "welcome": 2117,
    "recognize": 2118,
    "holiday": 2119,
    "Par": 2120,
    "gain": 2121,
    "kit": 2122,
    "ities": 2123,
    "gover": 2124,
    "accused": 2125,
    "enty": 2126,
    "plenty": 2127,
    "exp": 2128,
    "built": 2129,
    "weeks": 2130,
    "grad": 2131,
    "winter": 2132,
    "sentence": 2133,
    "void": 2134,
    "stead": 2135,
    "fishing": 2136,
    "animals": 2137,
    "Leave": 2138,
    "oper": 2139,
    "reli": 2140,
    "ises": 2141,
    "ached": 2142,
    "airport": 2143,
    "sky": 2144,
    "gift": 2145,
    "embarrass": 2146,
    "fill": 2147,
    "lad": 2148,
    "rup": 2149,
    "ties": 2150,
    "aded": 2151,
    "cks": 2152,
    "followed": 2153,
    "gi": 2154,
    "ian": 2155,
    "sible": 2156,
    "meant": 2157,
    "arch": 2158,
    "feed": 2159,
    "seemed": 2160,
    "market": 2161,
    "walking": 2162,
    "aware": 2163,
    "share": 2164,
    "laughing": 2165,
    "knife": 2166,
    "bottle": 2167,
    "convinced": 2168,
    "Chi": 2169,
    "ith": 2170,
    "ief": 2171,
    "ling": 2172,
    "sand": 2173,
    "sitting": 2174,
    "ster": 2175,
    "super": 2176,
    "Didn": 2177,
    "apples": 2178,
    "ches": 2179,
    "feelings": 2180,
    "condition": 2181,
    "eggs": 2182,
    "control": 2183,
    "Even": 2184,
    "Has": 2185,
    "Wait": 2186,
    "York": 2187,
    "base": 2188,
    "duty": 2189,
    "ror": 2190,
    "oken": 2191,
    "hadn": 2192,
    "produ": 2193,
    "plays": 2194,
    "view": 2195,
    "possib": 2196,
    "burn": 2197,
    "eight": 2198,
    "fit": 2199,
    "lone": 2200,
    "spr": 2201,
    "ushed": 2202,
    "cop": 2203,
    "stolen": 2204,
    "gotten": 2205,
    "iled": 2206,
    "prof": 2207,
    "inese": 2208,
    "studied": 2209,
    "Chinese": 2210,
    "seriously": 2211,
    "polite": 2212,
    "doubt": 2213,
    "10": 2214,
    "bas": 2215,
    "pa": 2216,
    "wise": 2217,
    "seum": 2218,
    "usual": 2219,
    "ters": 2220,
    "button": 2221,
    "Whose": 2222,
    "pencil": 2223,
    "ments": 2224,
    "viol": 2225,
    "cats": 2226,
    "sident": 2227,
    "warned": 2228,
    "Tod": 2229,
    "avoid": 2230,
    "mal": 2231,
    "sof": 2232,
    "asha": 2233,
    "veget": 2234,
    "locked": 2235,
    "rious": 2236,
    "deb": 2237,
    "museum": 2238,
    "blind": 2239,
    "trees": 2240,
    "confid": 2241,
    "grandfather": 2242,
    "blood": 2243,
    "taxi": 2244,
    "Today": 2245,
    "ashamed": 2246,
    "fif": 2247,
    "pted": 2248,
    "taught": 2249,
    "thor": 2250,
    "ons": 2251,
    "ordered": 2252,
    "char": 2253,
    "covered": 2254,
    "sugar": 2255,
    "pleased": 2256,
    "belie": 2257,
    "lights": 2258,
    "paint": 2259,
    "bird": 2260,
    "months": 2261,
    "polit": 2262,
    "opportun": 2263,
    "Jo": 2264,
    "loud": 2265,
    "inno": 2266,
    "reg": 2267,
    "charge": 2268,
    "host": 2269,
    "ache": 2270,
    "suf": 2271,
    "planning": 2272,
    "fami": 2273,
    "ails": 2274,
    "realize": 2275,
    "extreme": 2276,
    "arrested": 2277,
    "govern": 2278,
    "Lon": 2279,
    "cing": 2280,
    "chen": 2281,
    "lar": 2282,
    "mur": 2283,
    "vide": 2284,
    "recent": 2285,
    "meal": 2286,
    "absolu": 2287,
    "saved": 2288,
    "Canadi": 2289,
    "understood": 2290,
    "sleepy": 2291,
    "sooner": 2292,
    "taller": 2293,
    "kitchen": 2294,
    "lonely": 2295,
    "London": 2296,
    "Eu": 2297,
    "bri": 2298,
    "fact": 2299,
    "hn": 2300,
    "nic": 2301,
    "wit": 2302,
    "alous": 2303,
    "stole": 2304,
    "conside": 2305,
    "comm": 2306,
    "ousand": 2307,
    "feels": 2308,
    "tions": 2309,
    "boring": 2310,
    "voice": 2311,
    "sched": 2312,
    "simple": 2313,
    "wedding": 2314,
    "John": 2315,
    "considered": 2316,
    "God": 2317,
    "dir": 2318,
    "sort": 2319,
    "atch": 2320,
    "history": 2321,
    "persu": 2322,
    "igno": 2323,
    "smile": 2324,
    "personal": 2325,
    "jealous": 2326,
    "gener": 2327,
    "crime": 2328,
    "Most": 2329,
    "protect": 2330,
    "government": 2331,
    "Al": 2332,
    "Call": 2333,
    "return": 2334,
    "arely": 2335,
    "ety": 2336,
    "admit": 2337,
    "ions": 2338,
    "board": 2339,
    "deli": 2340,
    "common": 2341,
    "awake": 2342,
    "languages": 2343,
    "faster": 2344,
    "enemy": 2345,
    "talent": 2346,
    "received": 2347,
    "learning": 2348,
    "Paris": 2349,
    "Europe": 2350,
    "hang": 2351,
    "ines": 2352,
    "ash": 2353,
    "using": 2354,
    "wered": 2355,
    "missing": 2356,
    "divor": 2357,
    "bridge": 2358,
    "doors": 2359,
    "sweet": 2360,
    "proposal": 2361,
    "cise": 2362,
    "obey": 2363,
    "pas": 2364,
    "sn": 2365,
    "vill": 2366,
    "yell": 2367,
    "ists": 2368,
    "vest": 2369,
    "temp": 2370,
    "demand": 2371,
    "stone": 2372,
    "calling": 2373,
    "gram": 2374,
    "ticular": 2375,
    "particular": 2376,
    "priv": 2377,
    "obvious": 2378,
    "responsible": 2379,
    "calm": 2380,
    "slowly": 2381,
    "France": 2382,
    "popular": 2383,
    "suddenly": 2384,
    "explo": 2385,
    "Ask": 2386,
    "bread": 2387,
    "ense": 2388,
    "step": 2389,
    "cool": 2390,
    "urry": 2391,
    "fruit": 2392,
    "explan": 2393,
    "project": 2394,
    "prac": 2395,
    "appe": 2396,
    "grew": 2397,
    "support": 2398,
    "mouth": 2399,
    "club": 2400,
    "giving": 2401,
    "extremely": 2402,
    "Oc": 2403,
    "fur": 2404,
    "map": 2405,
    "ances": 2406,
    "attrac": 2407,
    "arti": 2408,
    "tight": 2409,
    "esca": 2410,
    "feet": 2411,
    "helping": 2412,
    "ilty": 2413,
    "cars": 2414,
    "guilty": 2415,
    "buying": 2416,
    "breath": 2417,
    "visited": 2418,
    "expecting": 2419,
    "teeth": 2420,
    "apartment": 2421,
    "escape": 2422,
    "athe": 2423,
    "fed": 2424,
    "fly": 2425,
    "round": 2426,
    "tast": 2427,
    "tober": 2428,
    "forgive": 2429,
    "forced": 2430,
    "account": 2431,
    "worst": 2432,
    "amaz": 2433,
    "urch": 2434,
    "manager": 2435,
    "excuse": 2436,
    "versity": 2437,
    "fresh": 2438,
    "dirty": 2439,
    "October": 2440,
    "Hurry": 2441,
    "None": 2442,
    "cried": 2443,
    "mom": 2444,
    "mill": 2445,
    "pair": 2446,
    "ina": 2447,
    "church": 2448,
    "sol": 2449,
    "fear": 2450,
    "entist": 2451,
    "standing": 2452,
    "survi": 2453,
    "course": 2454,
    "neighbors": 2455,
    "memory": 2456,
    "straight": 2457,
    "baseball": 2458,
    "Life": 2459,
    "Never": 2460,
    "dam": 2461,
    "hide": 2462,
    "lts": 2463,
    "pan": 2464,
    "squ": 2465,
    "oned": 2466,
    "notice": 2467,
    "sea": 2468,
    "web": 2469,
    "tears": 2470,
    "peace": 2471,
    "uts": 2472,
    "pose": 2473,
    "friendly": 2474,
    "eats": 2475,
    "ables": 2476,
    "apped": 2477,
    "watched": 2478,
    "type": 2479,
    "keeps": 2480,
    "drop": 2481,
    "fortun": 2482,
    "subject": 2483,
    "temper": 2484,
    "20": 2485,
    "ban": 2486,
    "toes": 2487,
    "hates": 2488,
    "acket": 2489,
    "woke": 2490,
    "rude": 2491,
    "rains": 2492,
    "intment": 2493,
    "brothers": 2494,
    "attack": 2495,
    "crit": 2496,
    "bike": 2497,
    "solution": 2498,
    "normal": 2499,
    "volun": 2500,
    "German": 2501,
    "lp": 2502,
    "ped": 2503,
    "ule": 2504,
    "stri": 2505,
    "stam": 2506,
    "nobody": 2507,
    "idi": 2508,
    "Help": 2509,
    "till": 2510,
    "mood": 2511,
    "usted": 2512,
    "bored": 2513,
    "exce": 2514,
    "talks": 2515,
    "green": 2516,
    "singer": 2517,
    "ticed": 2518,
    "lazy": 2519,
    "excited": 2520,
    "opportunity": 2521,
    "Hold": 2522,
    "rab": 2523,
    "thousand": 2524,
    "returned": 2525,
    "tray": 2526,
    "exer": 2527,
    "spoken": 2528,
    "drinks": 2529,
    "following": 2530,
    "treat": 2531,
    "complaining": 2532,
    "stuck": 2533,
    "suitcase": 2534,
    "certainly": 2535,
    "wallet": 2536,
    "Read": 2537,
    "spring": 2538,
    "Canadian": 2539,
    "schedule": 2540,
    "gas": 2541,
    "kno": 2542,
    "beat": 2543,
    "beha": 2544,
    "soc": 2545,
    "mbers": 2546,
    "lots": 2547,
    "listened": 2548,
    "China": 2549,
    "explained": 2550,
    "hiding": 2551,
    "article": 2552,
    "cuse": 2553,
    "nine": 2554,
    "ying": 2555,
    "anno": 2556,
    "nose": 2557,
    "habit": 2558,
    "ldren": 2559,
    "Hey": 2560,
    "abo": 2561,
    "moon": 2562,
    "exha": 2563,
    "quake": 2564,
    "guard": 2565,
    "understanding": 2566,
    "ground": 2567,
    "grap": 2568,
    "single": 2569,
    "Somebody": 2570,
    "caused": 2571,
    "continue": 2572,
    "Children": 2573,
    "village": 2574,
    "explanation": 2575,
    "soccer": 2576,
    "bby": 2577,
    "cast": 2578,
    "cation": 2579,
    "ease": 2580,
    "yen": 2581,
    "escap": 2582,
    "president": 2583,
    "impress": 2584,
    "race": 2585,
    "mark": 2586,
    "cious": 2587,
    "rule": 2588,
    "rumor": 2589,
    "growing": 2590,
    "picked": 2591,
    "familiar": 2592,
    "absolutely": 2593,
    "private": 2594,
    "eld": 2595,
    "flight": 2596,
    "nation": 2597,
    "natur": 2598,
    "rate": 2599,
    "rang": 2600,
    "sion": 2601,
    "tally": 2602,
    "reach": 2603,
    "entered": 2604,
    "bear": 2605,
    "aches": 2606,
    "ears": 2607,
    "fright": 2608,
    "prevent": 2609,
    "shocked": 2610,
    "bedroom": 2611,
    "mention": 2612,
    "meaning": 2613,
    "healthy": 2614,
    "result": 2615,
    "ergy": 2616,
    "drow": 2617,
    "oo": 2618,
    "ued": 2619,
    "totally": 2620,
    "aste": 2621,
    "noticed": 2622,
    "haps": 2623,
    "search": 2624,
    "rob": 2625,
    "cance": 2626,
    "Well": 2627,
    "ambit": 2628,
    "depressed": 2629,
    "consci": 2630,
    "starting": 2631,
    "match": 2632,
    "cream": 2633,
    "izz": 2634,
    "skin": 2635,
    "nearly": 2636,
    "songs": 2637,
    "appointment": 2638,
    "earthquake": 2639,
    "washing": 2640,
    "curious": 2641,
    "em": 2642,
    "mir": 2643,
    "pet": 2644,
    "instead": 2645,
    "reached": 2646,
    "astic": 2647,
    "energy": 2648,
    "among": 2649,
    "depart": 2650,
    "delight": 2651,
    "permission": 2652,
    "clever": 2653,
    "compli": 2654,
    "Sometimes": 2655,
    "intend": 2656,
    "difficul": 2657,
    "confused": 2658,
    "000": 2659,
    "convince": 2660,
    "purpose": 2661,
    "innocent": 2662,
    "million": 2663,
    "bright": 2664,
    "heat": 2665,
    "theor": 2666,
    "rice": 2667,
    "colate": 2668,
    "plant": 2669,
    "shy": 2670,
    "pres": 2671,
    "player": 2672,
    "handed": 2673,
    "gress": 2674,
    "grou": 2675,
    "bigger": 2676,
    "steal": 2677,
    "salt": 2678,
    "deter": 2679,
    "realized": 2680,
    "United": 2681,
    "suspect": 2682,
    "gradu": 2683,
    "further": 2684,
    "delighted": 2685,
    "Kyo": 2686,
    "bark": 2687,
    "fle": 2688,
    "gest": 2689,
    "ia": 2690,
    "non": 2691,
    "member": 2692,
    "assu": 2693,
    "bell": 2694,
    "gold": 2695,
    "chick": 2696,
    "ney": 2697,
    "urgent": 2698,
    "author": 2699,
    "chocolate": 2700,
    "mistaken": 2701,
    "wenty": 2702,
    "letters": 2703,
    "writer": 2704,
    "vote": 2705,
    "license": 2706,
    "dreams": 2707,
    "university": 2708,
    "silent": 2709,
    "magaz": 2710,
    "Excuse": 2711,
    "See": 2712,
    "lady": 2713,
    "vegetables": 2714,
    "idiot": 2715,
    "Kyoto": 2716,
    "Satur": 2717,
    "push": 2718,
    "sl": 2719,
    "smar": 2720,
    "tu": 2721,
    "vic": 2722,
    "whis": 2723,
    "invest": 2724,
    "formed": 2725,
    "cts": 2726,
    "guest": 2727,
    "answered": 2728,
    "advant": 2729,
    "countries": 2730,
    "courage": 2731,
    "dropped": 2732,
    "fighting": 2733,
    "engine": 2734,
    "occur": 2735,
    "soup": 2736,
    "threat": 2737,
    "naive": 2738,
    "attractive": 2739,
    "Com": 2740,
    "cab": 2741,
    "har": 2742,
    "pizz": 2743,
    "wound": 2744,
    "ves": 2745,
    "iting": 2746,
    "ulation": 2747,
    "conne": 2748,
    "chess": 2749,
    "hearing": 2750,
    "due": 2751,
    "ctions": 2752,
    "interrup": 2753,
    "imagine": 2754,
    "results": 2755,
    "position": 2756,
    "appeared": 2757,
    "Two": 2758,
    "Watch": 2759,
    "mate": 2760,
    "sli": 2761,
    "incred": 2762,
    "ising": 2763,
    "note": 2764,
    "seld": 2765,
    "weak": 2766,
    "conom": 2767,
    "commen": 2768,
    "tooth": 2769,
    "spell": 2770,
    "manage": 2771,
    "calls": 2772,
    "compet": 2773,
    "served": 2774,
    "sib": 2775,
    "cookies": 2776,
    "wards": 2777,
    "forgotten": 2778,
    "elect": 2779,
    "huge": 2780,
    "sweater": 2781,
    "responsib": 2782,
    "passport": 2783,
    "escaped": 2784,
    "seldom": 2785,
    "cru": 2786,
    "dad": 2787,
    "harm": 2788,
    "twenty": 2789,
    "zoo": 2790,
    "recommen": 2791,
    "andon": 2792,
    "island": 2793,
    "betray": 2794,
    "wesome": 2795,
    "abandon": 2796,
    "unhappy": 2797,
    "plac": 2798,
    "shar": 2799,
    "pool": 2800,
    "earn": 2801,
    "proper": 2802,
    "tors": 2803,
    "irsty": 2804,
    "cloud": 2805,
    "pretend": 2806,
    "kidding": 2807,
    "States": 2808,
    "employ": 2809,
    "flat": 2810,
    "transl": 2811,
    "concerned": 2812,
    "embarrassed": 2813,
    "believed": 2814,
    "exhausted": 2815,
    "theory": 2816,
    "awesome": 2817,
    "econom": 2818,
    "ience": 2819,
    "nap": 2820,
    "sor": 2821,
    "tough": 2822,
    "zen": 2823,
    "thief": 2824,
    "ress": 2825,
    "requi": 2826,
    "sty": 2827,
    "golf": 2828,
    "wet": 2829,
    "admi": 2830,
    "hip": 2831,
    "ury": 2832,
    "contr": 2833,
    "bye": 2834,
    "managed": 2835,
    "truck": 2836,
    "vior": 2837,
    "tickets": 2838,
    "England": 2839,
    "windows": 2840,
    "spot": 2841,
    "translate": 2842,
    "scream": 2843,
    "skiing": 2844,
    "judge": 2845,
    "filled": 2846,
    "tastes": 2847,
    "chicken": 2848,
    "smarter": 2849,
    "Ac": 2850,
    "Close": 2851,
    "Of": 2852,
    "Per": 2853,
    "ial": 2854,
    "jacket": 2855,
    "lit": 2856,
    "lack": 2857,
    "pred": 2858,
    "wis": 2859,
    "recor": 2860,
    "ham": 2861,
    "losing": 2862,
    "add": 2863,
    "acted": 2864,
    "del": 2865,
    "hero": 2866,
    "ific": 2867,
    "event": 2868,
    "draw": 2869,
    "changes": 2870,
    "pretended": 2871,
    "matters": 2872,
    "human": 2873,
    "legs": 2874,
    "grandmother": 2875,
    "avail": 2876,
    "punished": 2877,
    "distur": 2878,
    "organized": 2879,
    "possibility": 2880,
    "murder": 2881,
    "recently": 2882,
    "amazing": 2883,
    "behavior": 2884,
    "pizza": 2885,
    "electri": 2886,
    "Wr": 2887,
    "Yesterday": 2888,
    "emer": 2889,
    "iers": 2890,
    "nuts": 2891,
    "tour": 2892,
    "taste": 2893,
    "hall": 2894,
    "tire": 2895,
    "cancer": 2896,
    "text": 2897,
    "prin": 2898,
    "dishes": 2899,
    "cheap": 2900,
    "sisters": 2901,
    "trusted": 2902,
    "policeman": 2903,
    "third": 2904,
    "cards": 2905,
    "distance": 2906,
    "finger": 2907,
    "solved": 2908,
    "natural": 2909,
    "Fo": 2910,
    "Mother": 2911,
    "bow": 2912,
    "brow": 2913,
    "dry": 2914,
    "fro": 2915,
    "incre": 2916,
    "ery": 2917,
    "washed": 2918,
    "weap": 2919,
    "proof": 2920,
    "drug": 2921,
    "brush": 2922,
    "arms": 2923,
    "middle": 2924,
    "confident": 2925,
    "exercise": 2926,
    "advantage": 2927,
    "Father": 2928,
    "Frid": 2929,
    "Say": 2930,
    "cous": 2931,
    "jor": 2932,
    "jour": 2933,
    "shel": 2934,
    "repe": 2935,
    "Their": 2936,
    "unt": 2937,
    "iron": 2938,
    "upstairs": 2939,
    "commit": 2940,
    "audi": 2941,
    "carried": 2942,
    "diary": 2943,
    "oldest": 2944,
    "assist": 2945,
    "themselves": 2946,
    "cheer": 2947,
    "paying": 2948,
    "descri": 2949,
    "Things": 2950,
    "prize": 2951,
    "spends": 2952,
    "stem": 2953,
    "games": 2954,
    "example": 2955,
    "gency": 2956,
    "accepted": 2957,
    "failure": 2958,
    "major": 2959,
    "imagination": 2960,
    "sandwi": 2961,
    "burned": 2962,
    "profess": 2963,
    "video": 2964,
    "cruel": 2965,
    "Friday": 2966,
    "By": 2967,
    "cig": 2968,
    "fil": 2969,
    "jam": 2970,
    "nur": 2971,
    "rom": 2972,
    "wers": 2973,
    "ining": 2974,
    "edu": 2975,
    "itation": 2976,
    "moving": 2977,
    "excell": 2978,
    "goodbye": 2979,
    "amed": 2980,
    "dire": 2981,
    "diet": 2982,
    "forever": 2983,
    "speaker": 2984,
    "shoot": 2985,
    "brave": 2986,
    "teaching": 2987,
    "stranger": 2988,
    "headache": 2989,
    "cording": 2990,
    "denied": 2991,
    "crimin": 2992,
    "refuse": 2993,
    "perfectly": 2994,
    "traveling": 2995,
    "punct": 2996,
    "cash": 2997,
    "dancing": 2998,
    "crowd": 2999,
    "suffer": 3000,
    "With": 3001,
    "eg": 3002,
    "ging": 3003,
    "ls": 3004,
    "rat": 3005,
    "rit": 3006,
    "yes": 3007,
    "velo": 3008,
    "ences": 3009,
    "hobby": 3010,
    "anyway": 3011,
    "tells": 3012,
    "ourselves": 3013,
    "ilar": 3014,
    "disg": 3015,
    "answers": 3016,
    "raise": 3017,
    "teachers": 3018,
    "names": 3019,
    "camp": 3020,
    "similar": 3021,
    "sports": 3022,
    "soldiers": 3023,
    "credit": 3024,
    "introduce": 3025,
    "Saturday": 3026,
    "available": 3027,
    "Open": 3028,
    "email": 3029,
    "ghost": 3030,
    "ime": 3031,
    "sw": 3032,
    "twin": 3033,
    "thirsty": 3034,
    "instru": 3035,
    "issu": 3036,
    "hesit": 3037,
    "itu": 3038,
    "aly": 3039,
    "roof": 3040,
    "hired": 3041,
    "irm": 3042,
    "rained": 3043,
    "easier": 3044,
    "docu": 3045,
    "voted": 3046,
    "gunshot": 3047,
    "discussion": 3048,
    "population": 3049,
    "staring": 3050,
    "facts": 3051,
    "postp": 3052,
    "custom": 3053,
    "pleasant": 3054,
    "predic": 3055,
    "Write": 3056,
    "excellent": 3057,
    "cir": 3058,
    "dentist": 3059,
    "ip": 3060,
    "mitted": 3061,
    "size": 3062,
    "tle": 3063,
    "yed": 3064,
    "intell": 3065,
    "ane": 3066,
    "istic": 3067,
    "hire": 3068,
    "hill": 3069,
    "unless": 3070,
    "unlikely": 3071,
    "cops": 3072,
    "ices": 3073,
    "shoulder": 3074,
    "qual": 3075,
    "serve": 3076,
    "picnic": 3077,
    "gged": 3078,
    "horri": 3079,
    "fairly": 3080,
    "dying": 3081,
    "system": 3082,
    "tempt": 3083,
    "hoping": 3084,
    "pockets": 3085,
    "temperature": 3086,
    "complicated": 3087,
    "emergency": 3088,
    "punctual": 3089,
    "bat": 3090,
    "cro": 3091,
    "fu": 3092,
    "jail": 3093,
    "phy": 3094,
    "site": 3095,
    "tend": 3096,
    "intention": 3097,
    "arrow": 3098,
    "loss": 3099,
    "tiv": 3100,
    "within": 3101,
    "motion": 3102,
    "cow": 3103,
    "delay": 3104,
    "extr": 3105,
    "artist": 3106,
    "butter": 3107,
    "gives": 3108,
    "downstairs": 3109,
    "hurts": 3110,
    "runs": 3111,
    "contact": 3112,
    "highly": 3113,
    "parked": 3114,
    "treated": 3115,
    "costs": 3116,
    "capital": 3117,
    "examination": 3118,
    "Americans": 3119,
    "suspic": 3120,
    "fluent": 3121,
    "introduced": 3122,
    "pocket": 3123,
    "pleasure": 3124,
    "copy": 3125,
    "talented": 3126,
    "critic": 3127,
    "intellig": 3128,
    "Day": 3129,
    "ado": 3130,
    "ben": 3131,
    "evid": 3132,
    "ki": 3133,
    "ners": 3134,
    "naked": 3135,
    "insu": 3136,
    "insur": 3137,
    "meals": 3138,
    "ashed": 3139,
    "wears": 3140,
    "neither": 3141,
    "roll": 3142,
    "fever": 3143,
    "coin": 3144,
    "suic": 3145,
    "happiness": 3146,
    "workers": 3147,
    "quar": 3148,
    "conven": 3149,
    "wore": 3150,
    "believes": 3151,
    "birds": 3152,
    "logy": 3153,
    "Good": 3154,
    "complete": 3155,
    "fixed": 3156,
    "details": 3157,
    "Shut": 3158,
    "gentle": 3159,
    "destro": 3160,
    "remained": 3161,
    "jumped": 3162,
    "above": 3163,
    "frightened": 3164,
    "group": 3165,
    "Perhaps": 3166,
    "nurse": 3167,
    "Last": 3168,
    "aim": 3169,
    "bul": 3170,
    "dish": 3171,
    "kne": 3172,
    "tur": 3173,
    "retired": 3174,
    "lect": 3175,
    "lebr": 3176,
    "neare": 3177,
    "celebr": 3178,
    "ainted": 3179,
    "Whatever": 3180,
    "poem": 3181,
    "program": 3182,
    "pron": 3183,
    "offended": 3184,
    "gue": 3185,
    "childhood": 3186,
    "useful": 3187,
    "mayor": 3188,
    "threw": 3189,
    "supermarket": 3190,
    "delicious": 3191,
    "volunte": 3192,
    "except": 3193,
    "responsibility": 3194,
    "sharp": 3195,
    "insurance": 3196,
    "nearest": 3197,
    "furn": 3198,
    "page": 3199,
    "resc": 3200,
    "tom": 3201,
    "towel": 3202,
    "stren": 3203,
    "ones": 3204,
    "area": 3205,
    "knowled": 3206,
    "ung": 3207,
    "unable": 3208,
    "express": 3209,
    "ateful": 3210,
    "illeg": 3211,
    "convers": 3212,
    "disease": 3213,
    "grateful": 3214,
    "hurried": 3215,
    "foods": 3216,
    "psy": 3217,
    "resign": 3218,
    "clearly": 3219,
    "suggested": 3220,
    "garage": 3221,
    "prisoners": 3222,
    "borrowed": 3223,
    "neighborhood": 3224,
    "reply": 3225,
    "woods": 3226,
    "commun": 3227,
    "guests": 3228,
    "betrayed": 3229,
    "conversation": 3230,
    "Time": 3231,
    "barely": 3232,
    "cure": 3233,
    "dating": 3234,
    "hum": 3235,
    "none": 3236,
    "ption": 3237,
    "sang": 3238,
    "scar": 3239,
    "slight": 3240,
    "vive": 3241,
    "xious": 3242,
    "request": 3243,
    "ert": 3244,
    "ering": 3245,
    "orter": 3246,
    "stant": 3247,
    "lift": 3248,
    "goal": 3249,
    "alter": 3250,
    "antic": 3251,
    "model": 3252,
    "ulous": 3253,
    "everywhere": 3254,
    "speed": 3255,
    "bum": 3256,
    "closer": 3257,
    "raised": 3258,
    "winning": 3259,
    "kinds": 3260,
    "desp": 3261,
    "couch": 3262,
    "promises": 3263,
    "invitation": 3264,
    "enjoying": 3265,
    "smaller": 3266,
    "salary": 3267,
    "cleaned": 3268,
    "flower": 3269,
    "fashi": 3270,
    "jokes": 3271,
    "aired": 3272,
    "ugly": 3273,
    "depends": 3274,
    "crossed": 3275,
    "climbed": 3276,
    "leader": 3277,
    "explosion": 3278,
    "conscious": 3279,
    "difficulty": 3280,
    "magazine": 3281,
    "recommend": 3282,
    "abandoned": 3283,
    "cigare": 3284,
    "Hand": 3285,
    "Jack": 3286,
    "Pri": 3287,
    "bite": 3288,
    "pill": 3289,
    "zz": 3290,
    "members": 3291,
    "llo": 3292,
    "iture": 3293,
    "separ": 3294,
    "wasting": 3295,
    "ability": 3296,
    "bot": 3297,
    "decl": 3298,
    "ify": 3299,
    "concent": 3300,
    "chosen": 3301,
    "careless": 3302,
    "lovely": 3303,
    "grass": 3304,
    "survive": 3305,
    "checked": 3306,
    "shape": 3307,
    "whenever": 3308,
    "complained": 3309,
    "exciting": 3310,
    "orders": 3311,
    "repair": 3312,
    "succeeded": 3313,
    "smells": 3314,
    "foolish": 3315,
    "arguing": 3316,
    "basket": 3317,
    "sofa": 3318,
    "soft": 3319,
    "stamps": 3320,
    "drowned": 3321,
    "ambitious": 3322,
    "occurred": 3323,
    "suicide": 3324,
    "De": 3325,
    "Pre": 3326,
    "Quit": 3327,
    "Tr": 3328,
    "fence": 3329,
    "ys": 3330,
    "zzy": 3331,
    "ount": 3332,
    "rele": 3333,
    "regard": 3334,
    "remark": 3335,
    "omb": 3336,
    "season": 3337,
    "hated": 3338,
    "alco": 3339,
    "net": 3340,
    "rock": 3341,
    "accusto": 3342,
    "sale": 3343,
    "saving": 3344,
    "poison": 3345,
    "ours": 3346,
    "impro": 3347,
    "dra": 3348,
    "greet": 3349,
    "smiled": 3350,
    "badly": 3351,
    "drives": 3352,
    "classroom": 3353,
    "repaired": 3354,
    "belongs": 3355,
    "persuade": 3356,
    "divorced": 3357,
    "practice": 3358,
    "cousin": 3359,
    "furniture": 3360,
    "Jackson": 3361,
    "13": 3362,
    "Spe": 3363,
    "ered": 3364,
    "fety": 3365,
    "ges": 3366,
    "gam": 3367,
    "joking": 3368,
    "ka": 3369,
    "oil": 3370,
    "pushed": 3371,
    "rac": 3372,
    "thin": 3373,
    "ann": 3374,
    "armed": 3375,
    "goti": 3376,
    "acqu": 3377,
    "safety": 3378,
    "space": 3379,
    "impatient": 3380,
    "direct": 3381,
    "dizzy": 3382,
    "forest": 3383,
    "houses": 3384,
    "lately": 3385,
    "advance": 3386,
    "parti": 3387,
    "airplane": 3388,
    "wondering": 3389,
    "master": 3390,
    "symp": 3391,
    "From": 3392,
    "bathroom": 3393,
    "pulled": 3394,
    "ignore": 3395,
    "education": 3396,
    "accustomed": 3397,
    "Che": 3398,
    "Cho": 3399,
    "Neither": 3400,
    "dare": 3401,
    "lted": 3402,
    "nal": 3403,
    "pity": 3404,
    "vil": 3405,
    "zer": 3406,
    "erk": 3407,
    "state": 3408,
    "beard": 3409,
    "timid": 3410,
    "someday": 3411,
    "concl": 3412,
    "disagree": 3413,
    "raw": 3414,
    "file": 3415,
    "prices": 3416,
    "spending": 3417,
    "effort": 3418,
    "dreaming": 3419,
    "pieces": 3420,
    "seats": 3421,
    "Germany": 3422,
    "chall": 3423,
    "violin": 3424,
    "persuaded": 3425,
    "tempted": 3426,
    "obviously": 3427,
    "damage": 3428,
    "fortunately": 3429,
    "determin": 3430,
    "contract": 3431,
    "According": 3432,
    "illegal": 3433,
    "Co": 3434,
    "Few": 3435,
    "Sm": 3436,
    "auty": 3437,
    "aunt": 3438,
    "cult": 3439,
    "da": 3440,
    "iest": 3441,
    "math": 3442,
    "vator": 3443,
    "anxious": 3444,
    "ister": 3445,
    "aside": 3446,
    "orig": 3447,
    "ens": 3448,
    "allerg": 3449,
    "lower": 3450,
    "negoti": 3451,
    "pota": 3452,
    "stock": 3453,
    "illness": 3454,
    "progress": 3455,
    "bull": 3456,
    "studies": 3457,
    "icked": 3458,
    "cip": 3459,
    "planned": 3460,
    "mped": 3461,
    "contain": 3462,
    "scene": 3463,
    "worrying": 3464,
    "touched": 3465,
    "hug": 3466,
    "falling": 3467,
    "tongue": 3468,
    "Sundays": 3469,
    "ential": 3470,
    "football": 3471,
    "midnight": 3472,
    "burst": 3473,
    "relaxed": 3474,
    "reliable": 3475,
    "pale": 3476,
    "ignored": 3477,
    "banan": 3478,
    "prevented": 3479,
    "investig": 3480,
    "itude": 3481,
    "extra": 3482,
    "suspicious": 3483,
    "evidence": 3484,
    "kilo": 3485,
    "Choose": 3486,
    "farm": 3487,
    "ieve": 3488,
    "ji": 3489,
    "rap": 3490,
    "rarely": 3491,
    "uck": 3492,
    "inse": 3493,
    "atics": 3494,
    "behave": 3495,
    "wealth": 3496,
    "force": 3497,
    "ussi": 3498,
    "cover": 3499,
    "cooper": 3500,
    "percent": 3501,
    "bleed": 3502,
    "aching": 3503,
    "improve": 3504,
    "offic": 3505,
    "whose": 3506,
    "ures": 3507,
    "wherever": 3508,
    "field": 3509,
    "rub": 3510,
    "compan": 3511,
    "tical": 3512,
    "Three": 3513,
    "Because": 3514,
    "headed": 3515,
    "writes": 3516,
    "corner": 3517,
    "object": 3518,
    "elevator": 3519,
    "fallen": 3520,
    "Unfortunately": 3521,
    "factory": 3522,
    "valu": 3523,
    "continued": 3524,
    "fifty": 3525,
    "brief": 3526,
    "yellow": 3527,
    "national": 3528,
    "skinny": 3529,
    "pressure": 3530,
    "graduated": 3531,
    "eventually": 3532,
    "shelf": 3533,
    "audience": 3534,
    "sandwich": 3535,
    "alternative": 3536,
    "50": 3537,
    "Fe": 3538,
    "Russi": 3539,
    "Water": 3540,
    "Yes": 3541,
    "fond": 3542,
    "gs": 3543,
    "gth": 3544,
    "scold": 3545,
    "anced": 3546,
    "error": 3547,
    "meters": 3548,
    "stars": 3549,
    "forts": 3550,
    "loan": 3551,
    "neck": 3552,
    "nowhere": 3553,
    "defin": 3554,
    "cking": 3555,
    "spread": 3556,
    "apply": 3557,
    "grab": 3558,
    "friendship": 3559,
    "chest": 3560,
    "cheese": 3561,
    "parties": 3562,
    "skill": 3563,
    "ignor": 3564,
    "cooked": 3565,
    "efforts": 3566,
    "fortune": 3567,
    "entirely": 3568,
    "vided": 3569,
    "Only": 3570,
    "deeply": 3571,
    "concern": 3572,
    "relig": 3573,
    "divorce": 3574,
    "demanded": 3575,
    "intelligent": 3576,
    "strength": 3577,
    "origin": 3578,
    "Ad": 3579,
    "Dr": 3580,
    "Eat": 3581,
    "Ho": 3582,
    "Osa": 3583,
    "Su": 3584,
    "School": 3585,
    "Wor": 3586,
    "War": 3587,
    "cin": 3588,
    "sour": 3589,
    "vase": 3590,
    "ware": 3591,
    "income": 3592,
    "rer": 3593,
    "ism": 3594,
    "theater": 3595,
    "lean": 3596,
    "beauty": 3597,
    "dozen": 3598,
    "myster": 3599,
    "knowing": 3600,
    "def": 3601,
    "dece": 3602,
    "stomach": 3603,
    "fold": 3604,
    "goods": 3605,
    "consu": 3606,
    "contest": 3607,
    "ounce": 3608,
    "thematics": 3609,
    "shoe": 3610,
    "ruined": 3611,
    "awful": 3612,
    "desper": 3613,
    "invite": 3614,
    "cleaning": 3615,
    "begins": 3616,
    "elected": 3617,
    "patience": 3618,
    "traveled": 3619,
    "detail": 3620,
    "holding": 3621,
    "selling": 3622,
    "miles": 3623,
    "animal": 3624,
    "ibly": 3625,
    "Once": 3626,
    "fifteen": 3627,
    "stealing": 3628,
    "places": 3629,
    "criminal": 3630,
    "issue": 3631,
    "coincid": 3632,
    "knowledge": 3633,
    "Osaka": 3634,
    "Whe": 3635,
    "ee": 3636,
    "een": 3637,
    "flying": 3638,
    "gy": 3639,
    "relie": 3640,
    "eral": 3641,
    "meas": 3642,
    "stun": 3643,
    "army": 3644,
    "chief": 3645,
    "weigh": 3646,
    "hole": 3647,
    "soci": 3648,
    "cand": 3649,
    "teaches": 3650,
    "Italy": 3651,
    "terms": 3652,
    "happier": 3653,
    "illy": 3654,
    "anged": 3655,
    "gotta": 3656,
    "faith": 3657,
    "misunderstanding": 3658,
    "applic": 3659,
    "rooms": 3660,
    "jobs": 3661,
    "marri": 3662,
    "understands": 3663,
    "cient": 3664,
    "advise": 3665,
    "content": 3666,
    "shall": 3667,
    "passeng": 3668,
    "reasons": 3669,
    "reasonable": 3670,
    "boxes": 3671,
    "crack": 3672,
    "election": 3673,
    "captain": 3674,
    "discussed": 3675,
    "drove": 3676,
    "volu": 3677,
    "photograp": 3678,
    "argue": 3679,
    "argument": 3680,
    "silence": 3681,
    "powerful": 3682,
    "appears": 3683,
    "crowded": 3684,
    "reminds": 3685,
    "fortunate": 3686,
    "castle": 3687,
    "cancel": 3688,
    "brown": 3689,
    "profession": 3690,
    "suffering": 3691,
    "horrible": 3692,
    "gentleman": 3693,
    "passengers": 3694,
    "ba": 3695,
    "bound": 3696,
    "gate": 3697,
    "laid": 3698,
    "rush": 3699,
    "spl": 3700,
    "sses": 3701,
    "tar": 3702,
    "wa": 3703,
    "xpect": 3704,
    "oured": 3705,
    "toward": 3706,
    "ata": 3707,
    "meth": 3708,
    "ord": 3709,
    "orange": 3710,
    "env": 3711,
    "itch": 3712,
    "belt": 3713,
    "becoming": 3714,
    "section": 3715,
    "lim": 3716,
    "aled": 3717,
    "alarm": 3718,
    "yourselves": 3719,
    "ference": 3720,
    "acy": 3721,
    "action": 3722,
    "actor": 3723,
    "akes": 3724,
    "usting": 3725,
    "track": 3726,
    "ssed": 3727,
    "atest": 3728,
    "prepar": 3729,
    "handsome": 3730,
    "greatest": 3731,
    "smiling": 3732,
    "cheated": 3733,
    "ankly": 3734,
    "mates": 3735,
    "sitive": 3736,
    "bitter": 3737,
    "intended": 3738,
    "skir": 3739,
    "promo": 3740,
    "tribut": 3741,
    "sensitive": 3742,
    "stronger": 3743,
    "couraged": 3744,
    "puzz": 3745,
    "bags": 3746,
    "successful": 3747,
    "aimed": 3748,
    "appropri": 3749,
    "cases": 3750,
    "service": 3751,
    "bargain": 3752,
    "debt": 3753,
    "politics": 3754,
    "committed": 3755,
    "survived": 3756,
    "knocked": 3757,
    "victi": 3758,
    "wounded": 3759,
    "interrupt": 3760,
    "clouds": 3761,
    "committee": 3762,
    "describe": 3763,
    "Without": 3764,
    "drawer": 3765,
    "coincidence": 3766,
    "relieved": 3767,
    "xpected": 3768,
    "100": 3769,
    "Bu": 3770,
    "Cats": 3771,
    "Ko": 3772,
    "cket": 3773,
    "fal": 3774,
    "firm": 3775,
    "ius": 3776,
    "ler": 3777,
    "pond": 3778,
    "poured": 3779,
    "rated": 3780,
    "reserv": 3781,
    "height": 3782,
    "orrow": 3783,
    "ening": 3784,
    "bered": 3785,
    "Tomorrow": 3786,
    "fork": 3787,
    "tied": 3788,
    "socks": 3789,
    "hibit": 3790,
    "unlucky": 3791,
    "moder": 3792,
    "entr": 3793,
    "amount": 3794,
    "plants": 3795,
    "boo": 3796,
    "shorter": 3797,
    "stories": 3798,
    "ults": 3799,
    "quali": 3800,
    "angers": 3801,
    "cares": 3802,
    "aff": 3803,
    "affect": 3804,
    "finding": 3805,
    "walks": 3806,
    "kindness": 3807,
    "trained": 3808,
    "dumb": 3809,
    "sides": 3810,
    "eleven": 3811,
    "papers": 3812,
    "apologized": 3813,
    "collect": 3814,
    "engaged": 3815,
    "struck": 3816,
    "newspapers": 3817,
    "photos": 3818,
    "doubts": 3819,
    "holidays": 3820,
    "Almost": 3821,
    "impression": 3822,
    "robbed": 3823,
    "barking": 3824,
    "incredible": 3825,
    "earns": 3826,
    "repeat": 3827,
    "bench": 3828,
    "destroyed": 3829,
    "fashion": 3830,
    "greeted": 3831,
    "determined": 3832,
    "definite": 3833,
    "marriage": 3834,
    "method": 3835,
    "false": 3836,
    "Afri": 3837,
    "Gu": 3838,
    "Mt": 3839,
    "Prom": 3840,
    "Sit": 3841,
    "blow": 3842,
    "baked": 3843,
    "fan": 3844,
    "fake": 3845,
    "mic": 3846,
    "mbered": 3847,
    "narrow": 3848,
    "pound": 3849,
    "pants": 3850,
    "sink": 3851,
    "sco": 3852,
    "thick": 3853,
    "stared": 3854,
    "itself": 3855,
    "vert": 3856,
    "album": 3857,
    "loaded": 3858,
    "tip": 3859,
    "outr": 3860,
    "candy": 3861,
    "unusual": 3862,
    "odd": 3863,
    "aint": 3864,
    "defe": 3865,
    "deaf": 3866,
    "indust": 3867,
    "helps": 3868,
    "spare": 3869,
    "lasted": 3870,
    "truly": 3871,
    "lugg": 3872,
    "final": 3873,
    "bling": 3874,
    "ficient": 3875,
    "opening": 3876,
    "offered": 3877,
    "logical": 3878,
    "deny": 3879,
    "options": 3880,
    "resour": 3881,
    "capable": 3882,
    "genius": 3883,
    "unexpected": 3884,
    "screw": 3885,
    "paintings": 3886,
    "recognized": 3887,
    "univer": 3888,
    "relation": 3889,
    "appearance": 3890,
    "largest": 3891,
    "strict": 3892,
    "canceled": 3893,
    "properly": 3894,
    "economy": 3895,
    "journal": 3896,
    "hesitate": 3897,
    "phys": 3898,
    "delayed": 3899,
    "Prices": 3900,
    "stunned": 3901,
    "luggage": 3902,
    "Brit": 3903,
    "Oh": 3904,
    "Spain": 3905,
    "bomb": 3906,
    "cit": 3907,
    "cul": 3908,
    "dess": 3909,
    "fate": 3910,
    "ilet": 3911,
    "lou": 3912,
    "lines": 3913,
    "silly": 3914,
    "uce": 3915,
    "iny": 3916,
    "invent": 3917,
    "informed": 3918,
    "toilet": 3919,
    "rose": 3920,
    "roses": 3921,
    "cere": 3922,
    "cean": 3923,
    "tech": 3924,
    "mobi": 3925,
    "ically": 3926,
    "icated": 3927,
    "ician": 3928,
    "upon": 3929,
    "develo": 3930,
    "fog": 3931,
    "helpful": 3932,
    "prepare": 3933,
    "closet": 3934,
    "shook": 3935,
    "named": 3936,
    "bitten": 3937,
    "begun": 3938,
    "mony": 3939,
    "trick": 3940,
    "doctors": 3941,
    "shame": 3942,
    "password": 3943,
    "closely": 3944,
    "salad": 3945,
    "thirteen": 3946,
    "court": 3947,
    "warning": 3948,
    "fascin": 3949,
    "novels": 3950,
    "entire": 3951,
    "value": 3952,
    "insane": 3953,
    "hopes": 3954,
    "danced": 3955,
    "Forget": 3956,
    "fingers": 3957,
    "larger": 3958,
    "hanging": 3959,
    "survivor": 3960,
    "attacked": 3961,
    "annoying": 3962,
    "mirac": 3963,
    "departure": 3964,
    "planted": 3965,
    "nonsense": 3966,
    "threatened": 3967,
    "admire": 3968,
    "record": 3969,
    "hammer": 3970,
    "weapon": 3971,
    "film": 3972,
    "document": 3973,
    "turning": 3974,
    "bottom": 3975,
    "particip": 3976,
    "conclus": 3977,
    "Smoking": 3978,
    "scolded": 3979,
    "desperate": 3980,
    "appropriate": 3981,
    "louder": 3982,
    "Har": 3983,
    "Sever": 3984,
    "aver": 3985,
    "ctor": 3986,
    "cycle": 3987,
    "center": 3988,
    "cities": 3989,
    "fers": 3990,
    "hon": 3991,
    "reck": 3992,
    "research": 3993,
    "aster": 3994,
    "lled": 3995,
    "enced": 3996,
    "seated": 3997,
    "ids": 3998,
    "hook": 3999,
    "addic": 4000,
    "sop": 4001,
    "uncomfortable": 4002,
    "sometime": 4003,
    "pot": 4004,
    "protest": 4005,
    "perfor": 4006,
    "spir": 4007,
    "choices": 4008,
    "wondered": 4009,
    "uses": 4010,
    "putting": 4011,
    "mater": 4012,
    "maybe": 4013,
    "breathe": 4014,
    "Think": 4015,
    "prior": 4016,
    "farmer": 4017,
    "higher": 4018,
    "secrets": 4019,
    "complaints": 4020,
    "computers": 4021,
    "publ": 4022,
    "suggestion": 4023,
    "ttes": 4024,
    "science": 4025,
    "Anyone": 4026,
    "Anybody": 4027,
    "related": 4028,
    "confidence": 4029,
    "website": 4030,
    "mirror": 4031,
    "assumed": 4032,
    "screaming": 4033,
    "disturb": 4034,
    "customers": 4035,
    "adopted": 4036,
    "concentrate": 4037,
    "preparing": 4038,
    "modern": 4039,
    "Promise": 4040,
    "dessert": 4041,
    "Several": 4042,
    "Act": 4043,
    "CD": 4044,
    "Con": 4045,
    "Each": 4046,
    "Listen": 4047,
    "Po": 4048,
    "dust": 4049,
    "data": 4050,
    "ire": 4051,
    "rand": 4052,
    "sne": 4053,
    "sday": 4054,
    "tat": 4055,
    "vable": 4056,
    "yard": 4057,
    "thro": 4058,
    "incl": 4059,
    "asing": 4060,
    "enge": 4061,
    "lif": 4062,
    "anted": 4063,
    "load": 4064,
    "admitted": 4065,
    "advert": 4066,
    "pper": 4067,
    "accompan": 4068,
    "tery": 4069,
    "sales": 4070,
    "dev": 4071,
    "tense": 4072,
    "ilities": 4073,
    "spite": 4074,
    "chose": 4075,
    "mance": 4076,
    "affair": 4077,
    "disappeared": 4078,
    "rail": 4079,
    "handy": 4080,
    "shots": 4081,
    "brain": 4082,
    "sons": 4083,
    "planet": 4084,
    "dreamed": 4085,
    "surround": 4086,
    "cheaper": 4087,
    "starts": 4088,
    "lesson": 4089,
    "owns": 4090,
    "dumped": 4091,
    "scri": 4092,
    "Stand": 4093,
    "attended": 4094,
    "ummer": 4095,
    "visiting": 4096,
    "confess": 4097,
    "horses": 4098,
    "curity": 4099,
    "curtain": 4100,
    "warmer": 4101,
    "apology": 4102,
    "expert": 4103,
    "Wash": 4104,
    "imagined": 4105,
    "experiment": 4106,
    "occas": 4107,
    "2013": 4108,
    "liter": 4109,
    "electricity": 4110,
    "Speak": 4111,
    "challenge": 4112,
    "Africa": 4113,
    "citiz": 4114,
    "ceremony": 4115,
    "mobile": 4116,
    "performance": 4117,
    "tattoo": 4118,
    "App": 4119,
    "Fu": 4120,
    "Fill": 4121,
    "Gree": 4122,
    "Luck": 4123,
    "Mom": 4124,
    "Money": 4125,
    "bal": 4126,
    "bare": 4127,
    "eager": 4128,
    "fli": 4129,
    "fant": 4130,
    "gage": 4131,
    "gathe": 4132,
    "lent": 4133,
    "nature": 4134,
    "pig": 4135,
    "rise": 4136,
    "swear": 4137,
    "inch": 4138,
    "influ": 4139,
    "refri": 4140,
    "removed": 4141,
    "topic": 4142,
    "isy": 4143,
    "hello": 4144,
    "eds": 4145,
    "cher": 4146,
    "wild": 4147,
    "local": 4148,
    "neg": 4149,
    "neat": 4150,
    "ticated": 4151,
    "rot": 4152,
    "sore": 4153,
    "histicated": 4154,
    "abs": 4155,
    "oker": 4156,
    "motor": 4157,
    "ents": 4158,
    "ama": 4159,
    "utum": 4160,
    "ends": 4161,
    "shout": 4162,
    "ongrat": 4163,
    "hers": 4164,
    "poet": 4165,
    "constant": 4166,
    "conference": 4167,
    "blew": 4168,
    "pra": 4169,
    "pray": 4170,
    "spy": 4171,
    "imate": 4172,
    "miser": 4173,
    "mistook": 4174,
    "handled": 4175,
    "granted": 4176,
    "funeral": 4177,
    "sleeps": 4178,
    "supper": 4179,
    "biggest": 4180,
    "mploy": 4181,
    "surprising": 4182,
    "haircut": 4183,
    "Indi": 4184,
    "sounded": 4185,
    "counting": 4186,
    "attle": 4187,
    "snowing": 4188,
    "obje": 4189,
    "daughters": 4190,
    "signific": 4191,
    "More": 4192,
    "Frankly": 4193,
    "bothering": 4194,
    "mountains": 4195,
    "tracted": 4196,
    "packed": 4197,
    "Shouldn": 4198,
    "possibly": 4199,
    "regular": 4200,
    "generous": 4201,
    "rabbit": 4202,
    "incredibly": 4203,
    "translated": 4204,
    "disturbed": 4205,
    "drugs": 4206,
    "assistance": 4207,
    "disgusting": 4208,
    "fluently": 4209,
    "cigarettes": 4210,
    "bleeding": 4211,
    "entrance": 4212,
    "qualified": 4213,
    "definitely": 4214,
    "relationship": 4215,
    "sophisticated": 4216,
    "published": 4217,
    "accompanied": 4218,
    "gathered": 4219,
    "refriger": 4220,
    "utumn": 4221,
    "ongratul": 4222,
    "significant": 4223,
    "Air": 4224,
    "Asi": 4225,
    "Fin": 4226,
    "Grab": 4227,
    "Span": 4228,
    "Shall": 4229,
    "Won": 4230,
    "alike": 4231,
    "avi": 4232,
    "bud": 4233,
    "bass": 4234,
    "dig": 4235,
    "ees": 4236,
    "fought": 4237,
    "jerk": 4238,
    "ker": 4239,
    "mall": 4240,
    "oven": 4241,
    "wha": 4242,
    "inst": 4243,
    "inting": 4244,
    "total": 4245,
    "mel": 4246,
    "stain": 4247,
    "tious": 4248,
    "okay": 4249,
    "accom": 4250,
    "trad": 4251,
    "ambul": 4252,
    "decor": 4253,
    "exist": 4254,
    "ples": 4255,
    "conce": 4256,
    "auto": 4257,
    "achie": 4258,
    "finan": 4259,
    "useless": 4260,
    "cheek": 4261,
    "border": 4262,
    "nearby": 4263,
    "attitude": 4264,
    "While": 4265,
    "tallest": 4266,
    "kissing": 4267,
    "stret": 4268,
    "ringing": 4269,
    "flood": 4270,
    "resist": 4271,
    "Mondays": 4272,
    "darker": 4273,
    "recovered": 4274,
    "legal": 4275,
    "prisoner": 4276,
    "climate": 4277,
    "thanks": 4278,
    "aire": 4279,
    "sells": 4280,
    "taxes": 4281,
    "subway": 4282,
    "scientist": 4283,
    "screen": 4284,
    "risks": 4285,
    "Anything": 4286,
    "phoned": 4287,
    "purse": 4288,
    "champ": 4289,
    "Soon": 4290,
    "products": 4291,
    "violence": 4292,
    "witch": 4293,
    "square": 4294,
    "authority": 4295,
    "sors": 4296,
    "instructions": 4297,
    "lecture": 4298,
    "Check": 4299,
    "culture": 4300,
    "allergic": 4301,
    "potatoes": 4302,
    "skirt": 4303,
    "industry": 4304,
    "invented": 4305,
    "refrigerator": 4306,
    "accompl": 4307,
    "Cut": 4308,
    "Wome": 4309,
    "bs": 4310,
    "bon": 4311,
    "bly": 4312,
    "bage": 4313,
    "fy": 4314,
    "flies": 4315,
    "gloves": 4316,
    "io": 4317,
    "ior": 4318,
    "maid": 4319,
    "ocean": 4320,
    "ply": 4321,
    "tail": 4322,
    "var": 4323,
    "vain": 4324,
    "vard": 4325,
    "reject": 4326,
    "attempt": 4327,
    "issors": 4328,
    "heavi": 4329,
    "edge": 4330,
    "orm": 4331,
    "ency": 4332,
    "leak": 4333,
    "security": 4334,
    "chances": 4335,
    "wasted": 4336,
    "ada": 4337,
    "ably": 4338,
    "unfair": 4339,
    "accur": 4340,
    "iculous": 4341,
    "trap": 4342,
    "poll": 4343,
    "polic": 4344,
    "focus": 4345,
    "whoever": 4346,
    "drag": 4347,
    "discovered": 4348,
    "mentally": 4349,
    "bru": 4350,
    "remembered": 4351,
    "nerve": 4352,
    "fund": 4353,
    "rainy": 4354,
    "gging": 4355,
    "rented": 4356,
    "scissors": 4357,
    "aughter": 4358,
    "Doesn": 4359,
    "logist": 4360,
    "steak": 4361,
    "deadline": 4362,
    "spoon": 4363,
    "complex": 4364,
    "current": 4365,
    "wheel": 4366,
    "ridiculous": 4367,
    "humor": 4368,
    "sweat": 4369,
    "baggage": 4370,
    "respond": 4371,
    "streets": 4372,
    "signed": 4373,
    "azz": 4374,
    "fastest": 4375,
    "Remember": 4376,
    "mathematics": 4377,
    "hoped": 4378,
    "beyond": 4379,
    "package": 4380,
    "embarrassing": 4381,
    "rupt": 4382,
    "charges": 4383,
    "witness": 4384,
    "strike": 4385,
    "assume": 4386,
    "notebook": 4387,
    "style": 4388,
    "postponed": 4389,
    "convenient": 4390,
    "alcohol": 4391,
    "bullet": 4392,
    "valuable": 4393,
    "Russian": 4394,
    "Drink": 4395,
    "mystery": 4396,
    "folded": 4397,
    "candles": 4398,
    "reservation": 4399,
    "Guess": 4400,
    "miracle": 4401,
    "Harvard": 4402,
    "average": 4403,
    "Fuji": 4404,
    "absence": 4405,
    "Spanish": 4406,
    "ambulance": 4407,
    "Women": 4408,
    "policy": 4409,
    "15": 4410,
    "18": 4411,
    "Find": 4412,
    "Hang": 4413,
    "Light": 4414,
    "Man": 4415,
    "Men": 4416,
    "Next": 4417,
    "Rome": 4418,
    "Val": 4419,
    "double": 4420,
    "equal": 4421,
    "fus": 4422,
    "fainted": 4423,
    "honey": 4424,
    "kicked": 4425,
    "lam": 4426,
    "os": 4427,
    "phe": 4428,
    "shave": 4429,
    "retire": 4430,
    "ancient": 4431,
    "attempted": 4432,
    "thered": 4433,
    "asy": 4434,
    "arched": 4435,
    "arian": 4436,
    "noisy": 4437,
    "beside": 4438,
    "below": 4439,
    "arent": 4440,
    "timis": 4441,
    "ceiling": 4442,
    "fective": 4443,
    "code": 4444,
    "coins": 4445,
    "suits": 4446,
    "entine": 4447,
    "aggress": 4448,
    "Doing": 4449,
    "sail": 4450,
    "frust": 4451,
    "stopping": 4452,
    "uled": 4453,
    "reads": 4454,
    "comment": 4455,
    "ounced": 4456,
    "mud": 4457,
    "uded": 4458,
    "sheep": 4459,
    "guide": 4460,
    "cleared": 4461,
    "tingu": 4462,
    "medical": 4463,
    "sites": 4464,
    "bled": 4465,
    "claim": 4466,
    "breaking": 4467,
    "answering": 4468,
    "sett": 4469,
    "importance": 4470,
    "jeans": 4471,
    "scen": 4472,
    "shake": 4473,
    "agreement": 4474,
    "parking": 4475,
    "musician": 4476,
    "laun": 4477,
    "optimis": 4478,
    "stub": 4479,
    "recover": 4480,
    "buildings": 4481,
    "dete": 4482,
    "shirts": 4483,
    "agrees": 4484,
    "bills": 4485,
    "deserves": 4486,
    "nicer": 4487,
    "robber": 4488,
    "wishes": 4489,
    "weapons": 4490,
    "twins": 4491,
    "communic": 4492,
    "despise": 4493,
    "investigation": 4494,
    "professional": 4495,
    "ordin": 4496,
    "survivors": 4497,
    "throat": 4498,
    "miserable": 4499,
    "Valentine": 4500,
    ",\"": 4501,
    "16": 4502,
    "Ab": 4503,
    "Bir": 4504,
    "Cor": 4505,
    "Dad": 4506,
    "Either": 4507,
    "Had": 4508,
    "Having": 4509,
    "Li": 4510,
    "Me": 4511,
    "Pl": 4512,
    "battle": 4513,
    "fits": 4514,
    "gro": 4515,
    "gather": 4516,
    "ili": 4517,
    "ians": 4518,
    "jazz": 4519,
    "mouse": 4520,
    "squi": 4521,
    "task": 4522,
    "van": 4523,
    "towards": 4524,
    "arily": 4525,
    "sees": 4526,
    "welve": 4527,
    "holic": 4528,
    "loose": 4529,
    "social": 4530,
    "oked": 4531,
    "fered": 4532,
    "acter": 4533,
    "coach": 4534,
    "cott": 4535,
    "worn": 4536,
    "agger": 4537,
    "plu": 4538,
    "ified": 4539,
    "exchange": 4540,
    "achieve": 4541,
    "spid": 4542,
    "imp": 4543,
    "selfish": 4544,
    "distracted": 4545,
    "downtown": 4546,
    "shock": 4547,
    "cautious": 4548,
    "turns": 4549,
    "actress": 4550,
    "changing": 4551,
    "Enjoy": 4552,
    "keeping": 4553,
    "suppor": 4554,
    "pies": 4555,
    "ships": 4556,
    "Inter": 4557,
    "effective": 4558,
    "lawn": 4559,
    "crash": 4560,
    "grown": 4561,
    "grows": 4562,
    "obli": 4563,
    "complaint": 4564,
    "suitcases": 4565,
    "terribly": 4566,
    "simply": 4567,
    "acceptable": 4568,
    "juice": 4569,
    "receive": 4570,
    "approved": 4571,
    "And": 4572,
    "honesty": 4573,
    "teered": 4574,
    "burning": 4575,
    "servant": 4576,
    "197": 4577,
    "positive": 4578,
    "gained": 4579,
    "operation": 4580,
    "loudly": 4581,
    "yelling": 4582,
    "particularly": 4583,
    "practic": 4584,
    "volunteered": 4585,
    "connected": 4586,
    "employees": 4587,
    "translation": 4588,
    "Follow": 4589,
    "direction": 4590,
    "camping": 4591,
    "ghosts": 4592,
    "postpone": 4593,
    "circle": 4594,
    "volunteer": 4595,
    "improved": 4596,
    "target": 4597,
    "collecting": 4598,
    "occasion": 4599,
    "fantastic": 4600,
    "But": 4601,
    "Gen": 4602,
    "Mars": 4603,
    "Sha": 4604,
    "Summer": 4605,
    "Ten": 4606,
    "cough": 4607,
    "emotion": 4608,
    "gear": 4609,
    "itors": 4610,
    "ks": 4611,
    "lish": 4612,
    "mble": 4613,
    "mies": 4614,
    "tured": 4615,
    "ues": 4616,
    "wing": 4617,
    "xed": 4618,
    "ony": 4619,
    "meter": 4620,
    "edom": 4621,
    "staff": 4622,
    "ays": 4623,
    "candle": 4624,
    "unde": 4625,
    "mosqui": 4626,
    "accent": 4627,
    "activ": 4628,
    "pered": 4629,
    "devoted": 4630,
    "exagger": 4631,
    "pless": 4632,
    "que": 4633,
    "consis": 4634,
    "constru": 4635,
    "compared": 4636,
    "ament": 4637,
    "carpet": 4638,
    "gled": 4639,
    "sheet": 4640,
    "cially": 4641,
    "puts": 4642,
    "crew": 4643,
    "beginner": 4644,
    "strangers": 4645,
    "shaken": 4646,
    "effect": 4647,
    "Stud": 4648,
    "century": 4649,
    "sunglasses": 4650,
    "intersection": 4651,
    "strongly": 4652,
    "gery": 4653,
    "gunshots": 4654,
    "disappoint": 4655,
    "worthy": 4656,
    "bringing": 4657,
    "calcul": 4658,
    "bio": 4659,
    "flash": 4660,
    "blamed": 4661,
    "unemploy": 4662,
    "dedicated": 4663,
    "silver": 4664,
    "dependent": 4665,
    "crossing": 4666,
    "receipt": 4667,
    "remains": 4668,
    "reminded": 4669,
    "debate": 4670,
    "Although": 4671,
    "critical": 4672,
    "stamp": 4673,
    "mentioned": 4674,
    "flew": 4675,
    "require": 4676,
    "required": 4677,
    "increase": 4678,
    "journey": 4679,
    "assistant": 4680,
    "quality": 4681,
    "knees": 4682,
    "pronounce": 4683,
    "rescued": 4684,
    "released": 4685,
    "acquainted": 4686,
    "volume": 4687,
    "Actually": 4688,
    "achieved": 4689,
    "rejected": 4690,
    "underest": 4691,
    "12": 4692,
    "Gre": 4693,
    "Ro": 4694,
    "Ste": 4695,
    "autumn": 4696,
    "cum": 4697,
    "gor": 4698,
    "leng": 4699,
    "nails": 4700,
    "ram": 4701,
    "wreck": 4702,
    "replace": 4703,
    "toy": 4704,
    "attic": 4705,
    "envelo": 4706,
    "sting": 4707,
    "stage": 4708,
    "arant": 4709,
    "aries": 4710,
    "beating": 4711,
    "sequ": 4712,
    "limit": 4713,
    "chan": 4714,
    "wire": 4715,
    "nel": 4716,
    "tires": 4717,
    "rop": 4718,
    "abor": 4719,
    "unconscious": 4720,
    "coward": 4721,
    "ague": 4722,
    "pointed": 4723,
    "exchanged": 4724,
    "worker": 4725,
    "provide": 4726,
    "prohibit": 4727,
    "Canada": 4728,
    "misunderstood": 4729,
    "bug": 4730,
    "buried": 4731,
    "bucket": 4732,
    "agement": 4733,
    "guarant": 4734,
    "standard": 4735,
    "dislike": 4736,
    "overweight": 4737,
    "handker": 4738,
    "bran": 4739,
    "brand": 4740,
    "finds": 4741,
    "chever": 4742,
    "bedtime": 4743,
    "whichever": 4744,
    "blan": 4745,
    "training": 4746,
    "visa": 4747,
    "personally": 4748,
    "igned": 4749,
    "accidents": 4750,
    "shared": 4751,
    "stepped": 4752,
    "classmates": 4753,
    "safely": 4754,
    "laws": 4755,
    "examined": 4756,
    "rising": 4757,
    "garbage": 4758,
    "smoo": 4759,
    "walls": 4760,
    "halfway": 4761,
    "terrified": 4762,
    "flag": 4763,
    "enemies": 4764,
    "blackboard": 4765,
    "teenager": 4766,
    "punish": 4767,
    "oppo": 4768,
    "starving": 4769,
    "cellphone": 4770,
    "loyal": 4771,
    "straw": 4772,
    "grades": 4773,
    "regis": 4774,
    "tempor": 4775,
    "excuses": 4776,
    "difficulties": 4777,
    "millionaire": 4778,
    "presence": 4779,
    "tub": 4780,
    "connection": 4781,
    "competent": 4782,
    "admired": 4783,
    "tourists": 4784,
    "swam": 4785,
    "gambling": 4786,
    "banana": 4787,
    "officer": 4788,
    "application": 4789,
    "split": 4790,
    "tributed": 4791,
    "universe": 4792,
    "fascinating": 4793,
    "lifted": 4794,
    "surrounded": 4795,
    "accurate": 4796,
    "aggressive": 4797,
    "stubborn": 4798,
    "Internet": 4799,
    "length": 4800,
    "handkerchief": 4801,
    "Cont": 4802,
    "Face": 4803,
    "Howe": 4804,
    "Park": 4805,
    "Sou": 4806,
    "chat": 4807,
    "clue": 4808,
    "congratul": 4809,
    "dom": 4810,
    "gon": 4811,
    "ived": 4812,
    "mass": 4813,
    "ox": 4814,
    "oting": 4815,
    "por": 4816,
    "pir": 4817,
    "pstick": 4818,
    "rare": 4819,
    "ske": 4820,
    "woken": 4821,
    "incident": 4822,
    "remo": 4823,
    "toys": 4824,
    "aston": 4825,
    "stat": 4826,
    "stances": 4827,
    "lected": 4828,
    "nod": 4829,
    "noti": 4830,
    "seas": 4831,
    "ides": 4832,
    "charm": 4833,
    "washer": 4834,
    "forty": 4835,
    "loser": 4836,
    "absor": 4837,
    "Itali": 4838,
    "ppy": 4839,
    "peel": 4840,
    "agers": 4841,
    "plom": 4842,
    "degre": 4843,
    "poo": 4844,
    "expen": 4845,
    "helpless": 4846,
    "anges": 4847,
    "pride": 4848,
    "igner": 4849,
    "glanced": 4850,
    "apt": 4851,
    "uding": 4852,
    "diam": 4853,
    "discount": 4854,
    "rested": 4855,
    "typho": 4856,
    "raz": 4857,
    "cies": 4858,
    "latest": 4859,
    "grave": 4860,
    "surren": 4861,
    "surgery": 4862,
    "cheating": 4863,
    "sings": 4864,
    "supply": 4865,
    "supplies": 4866,
    "stops": 4867,
    "tribu": 4868,
    "efficient": 4869,
    "Love": 4870,
    "sincere": 4871,
    "guessed": 4872,
    "treating": 4873,
    "option": 4874,
    "stress": 4875,
    "sunscreen": 4876,
    "interpre": 4877,
    "engagement": 4878,
    "experienced": 4879,
    "north": 4880,
    "chairs": 4881,
    "starved": 4882,
    "faces": 4883,
    "relative": 4884,
    "respected": 4885,
    "south": 4886,
    "dancer": 4887,
    "judged": 4888,
    "opera": 4889,
    "conditions": 4890,
    "productive": 4891,
    "debts": 4892,
    "thorough": 4893,
    "suffered": 4894,
    "general": 4895,
    "obeyed": 4896,
    "snakes": 4897,
    "steps": 4898,
    "damaged": 4899,
    "impressive": 4900,
    "department": 4901,
    "graduate": 4902,
    "documents": 4903,
    "tivated": 4904,
    "insult": 4905,
    "psych": 4906,
    "pillow": 4907,
    "relev": 4908,
    "religious": 4909,
    "original": 4910,
    "Whether": 4911,
    "photograph": 4912,
    "victim": 4913,
    "boots": 4914,
    "British": 4915,
    "flir": 4916,
    "negative": 4917,
    "motorcycle": 4918,
    "whale": 4919,
    "tradition": 4920,
    "detective": 4921,
    "ordinary": 4922,
    "About": 4923,
    "supportive": 4924,
    "smooth": 4925,
    "However": 4926,
    "degrees": 4927,
    "Apri": 4928,
    "Bet": 4929,
    "Car": 4930,
    "Dis": 4931,
    "First": 4932,
    "Hu": 4933,
    "Hal": 4934,
    "Happ": 4935,
    "June": 4936,
    "Lin": 4937,
    "Mus": 4938,
    "Mex": 4939,
    "Save": 4940,
    "Tie": 4941,
    "US": 4942,
    "Use": 4943,
    "bid": 4944,
    "bone": 4945,
    "bunch": 4946,
    "cence": 4947,
    "equ": 4948,
    "gers": 4949,
    "ix": 4950,
    "lap": 4951,
    "mare": 4952,
    "pitch": 4953,
    "ration": 4954,
    "tte": 4955,
    "tune": 4956,
    "twelve": 4957,
    "wide": 4958,
    "insis": 4959,
    "reput": 4960,
    "toler": 4961,
    "isis": 4962,
    "online": 4963,
    "ors": 4964,
    "bee": 4965,
    "searched": 4966,
    "goals": 4967,
    "verify": 4968,
    "west": 4969,
    "anti": 4970,
    "richest": 4971,
    "adult": 4972,
    "rog": 4973,
    "donated": 4974,
    "tron": 4975,
    "trunk": 4976,
    "ained": 4977,
    "Dogs": 4978,
    "bold": 4979,
    "demon": 4980,
    "fridge": 4981,
    "fox": 4982,
    "proceed": 4983,
    "provided": 4984,
    "amen": 4985,
    "perhaps": 4986,
    "pregn": 4987,
    "jogging": 4988,
    "spin": 4989,
    "spill": 4990,
    "asks": 4991,
    "manners": 4992,
    "nightmare": 4993,
    "diplom": 4994,
    "watches": 4995,
    "cloth": 4996,
    "vivid": 4997,
    "fined": 4998,
    "parts": 4999,
    "drew": 5000,
    "differ": 5001,
    "ruin": 5002,
    "creep": 5003,
    "creative": 5004,
    "shows": 5005,
    "blon": 5006,
    "begged": 5007,
    "youngest": 5008,
    "skate": 5009,
    "privac": 5010,
    "breaks": 5011,
    "scary": 5012,
    "corn": 5013,
    "counter": 5014,
    "closest": 5015,
    "crashed": 5016,
    "crisis": 5017,
    "rings": 5018,
    "becomes": 5019,
    "interview": 5020,
    "craw": 5021,
    "dollar": 5022,
    "hugged": 5023,
    "falls": 5024,
    "cakes": 5025,
    "addressed": 5026,
    "joined": 5027,
    "dyed": 5028,
    "hidden": 5029,
    "owes": 5030,
    "blackmail": 5031,
    "freedom": 5032,
    "soldier": 5033,
    "screamed": 5034,
    "approach": 5035,
    "risky": 5036,
    "entertain": 5037,
    "burgl": 5038,
    "conditioner": 5039,
    "violent": 5040,
    "political": 5041,
    "innocence": 5042,
    "personality": 5043,
    "Reading": 5044,
    "ambition": 5045,
    "magazines": 5046,
    "placed": 5047,
    "spotted": 5048,
    "addition": 5049,
    "temptation": 5050,
    "dishwasher": 5051,
    "celebrating": 5052,
    "President": 5053,
    "Trust": 5054,
    "remarks": 5055,
    "briefly": 5056,
    "grabbed": 5057,
    "gym": 5058,
    "waved": 5059,
    "promoted": 5060,
    "micro": 5061,
    "resource": 5062,
    "journalist": 5063,
    "participate": 5064,
    "confessed": 5065,
    "budget": 5066,
    "arently": 5067,
    "settled": 5068,
    "optimistic": 5069,
    "Birds": 5070,
    "consists": 5071,
    "envelope": 5072,
    "prohibited": 5073,
    "temporary": 5074,
    "gonna": 5075,
    "charming": 5076,
    "expenses": 5077,
    "psychic": 5078,
    "relevant": 5079,
    "April": 5080,
    "Half": 5081,
    "privacy": 5082,
    "Ar": 5083,
    "Draw": 5084,
    "Hone": 5085,
    "Jud": 5086,
    "Ob": 5087,
    "Pro": 5088,
    "Play": 5089,
    "Talk": 5090,
    "ax": 5091,
    "bra": 5092,
    "evil": 5093,
    "ires": 5094,
    "kin": 5095,
    "lace": 5096,
    "laughter": 5097,
    "pha": 5098,
    "pace": 5099,
    "path": 5100,
    "poker": 5101,
    "slo": 5102,
    "sword": 5103,
    "slice": 5104,
    "switch": 5105,
    "tro": 5106,
    "tiny": 5107,
    "uous": 5108,
    "vit": 5109,
    "wand": 5110,
    "zing": 5111,
    "zes": 5112,
    "thumb": 5113,
    "indoors": 5114,
    "recall": 5115,
    "tower": 5116,
    "atic": 5117,
    "vere": 5118,
    "oranges": 5119,
    "wiped": 5120,
    "located": 5121,
    "rigu": 5122,
    "etite": 5123,
    "adays": 5124,
    "rots": 5125,
    "fere": 5126,
    "access": 5127,
    "accus": 5128,
    "trou": 5129,
    "bothered": 5130,
    "pos": 5131,
    "ulse": 5132,
    "consequ": 5133,
    "compromise": 5134,
    "thanked": 5135,
    "spect": 5136,
    "imit": 5137,
    "backwards": 5138,
    "appetite": 5139,
    "divided": 5140,
    "geon": 5141,
    "disappear": 5142,
    "discouraged": 5143,
    "Haven": 5144,
    "clothing": 5145,
    "planes": 5146,
    "surgeon": 5147,
    "mercy": 5148,
    "hopeless": 5149,
    "awfully": 5150,
    "sentences": 5151,
    "lightning": 5152,
    "intrigu": 5153,
    "painful": 5154,
    "hunting": 5155,
    "settle": 5156,
    "vention": 5157,
    "numbers": 5158,
    "Lock": 5159,
    "treats": 5160,
    "appreciated": 5161,
    "confirm": 5162,
    "forms": 5163,
    "collap": 5164,
    "captured": 5165,
    "secretary": 5166,
    "interfere": 5167,
    "ridden": 5168,
    "disappointing": 5169,
    "decisions": 5170,
    "suitable": 5171,
    "bloom": 5172,
    "blown": 5173,
    "seconds": 5174,
    "desert": 5175,
    "deserted": 5176,
    "mile": 5177,
    "approve": 5178,
    "approaching": 5179,
    "gifts": 5180,
    "soul": 5181,
    "thrown": 5182,
    "climbing": 5183,
    "product": 5184,
    "eighteen": 5185,
    "pajam": 5186,
    "pencils": 5187,
    "politician": 5188,
    "families": 5189,
    "bribe": 5190,
    "snack": 5191,
    "exception": 5192,
    "aboard": 5193,
    "electric": 5194,
    "princess": 5195,
    "ironment": 5196,
    "professor": 5197,
    "crops": 5198,
    "quarter": 5199,
    "convenience": 5200,
    "knee": 5201,
    "rescue": 5202,
    "pills": 5203,
    "separated": 5204,
    "basketball": 5205,
    "bananas": 5206,
    "Feel": 5207,
    "necklace": 5208,
    "puzzle": 5209,
    "Kore": 5210,
    "material": 5211,
    "sneak": 5212,
    "citizen": 5213,
    "constantly": 5214,
    "financial": 5215,
    "tinguish": 5216,
    "scenery": 5217,
    "cottage": 5218,
    "emotional": 5219,
    "cumstances": 5220,
    "South": 5221,
    "Italian": 5222,
    "typhoon": 5223,
    "pajamas": 5224,
    "200": 5225,
    "300": 5226,
    "Alice": 5227,
    "Braz": 5228,
    "Clear": 5229,
    "Fortun": 5230,
    "Haw": 5231,
    "Min": 5232,
    "Over": 5233,
    "Pay": 5234,
    "Red": 5235,
    "Run": 5236,
    "Sud": 5237,
    "Swit": 5238,
    "Thur": 5239,
    "Tower": 5240,
    "Vi": 5241,
    "blu": 5242,
    "cave": 5243,
    "cago": 5244,
    "ggled": 5245,
    "kar": 5246,
    "mil": 5247,
    "nail": 5248,
    "nical": 5249,
    "racket": 5250,
    "sno": 5251,
    "swer": 5252,
    "ump": 5253,
    "vir": 5254,
    "wol": 5255,
    "rese": 5256,
    "reet": 5257,
    "refer": 5258,
    "represent": 5259,
    "tori": 5260,
    "toma": 5261,
    "youth": 5262,
    "erally": 5263,
    "isted": 5264,
    "bel": 5265,
    "sess": 5266,
    "identi": 5267,
    "goat": 5268,
    "alpha": 5269,
    "forgave": 5270,
    "outdoors": 5271,
    "cane": 5272,
    "motivated": 5273,
    "acqui": 5274,
    "active": 5275,
    "cope": 5276,
    "entists": 5277,
    "trous": 5278,
    "urged": 5279,
    "sauce": 5280,
    "delive": 5281,
    "shoulders": 5282,
    "condu": 5283,
    "comb": 5284,
    "earning": 5285,
    "earned": 5286,
    "permitted": 5287,
    "precious": 5288,
    "carrots": 5289,
    "bookstore": 5290,
    "itect": 5291,
    "udd": 5292,
    "cared": 5293,
    "applies": 5294,
    "applied": 5295,
    "essential": 5296,
    "players": 5297,
    "childish": 5298,
    "surf": 5299,
    "surface": 5300,
    "hurting": 5301,
    "mini": 5302,
    "clung": 5303,
    "trains": 5304,
    "visitors": 5305,
    "pilot": 5306,
    "ggy": 5307,
    "arriving": 5308,
    "trusts": 5309,
    "shade": 5310,
    "decent": 5311,
    "Street": 5312,
    "eyesight": 5313,
    "denly": 5314,
    "alized": 5315,
    "tests": 5316,
    "craf": 5317,
    "eleph": 5318,
    "exams": 5319,
    "picking": 5320,
    "collection": 5321,
    "hearted": 5322,
    "berries": 5323,
    "suggesting": 5324,
    "blocked": 5325,
    "weekends": 5326,
    "smokes": 5327,
    "opinions": 5328,
    "deserved": 5329,
    "consideration": 5330,
    "subscri": 5331,
    "warmth": 5332,
    "fooled": 5333,
    "customer": 5334,
    "magic": 5335,
    "throwing": 5336,
    "seventeen": 5337,
    "welcomed": 5338,
    "architect": 5339,
    "Chicago": 5340,
    "character": 5341,
    "register": 5342,
    "absolute": 5343,
    "generally": 5344,
    "demands": 5345,
    "websites": 5346,
    "knock": 5347,
    "annoyed": 5348,
    "rumors": 5349,
    "drowning": 5350,
    "flex": 5351,
    "whispered": 5352,
    "threatening": 5353,
    "hardest": 5354,
    "harvest": 5355,
    "slipped": 5356,
    "frozen": 5357,
    "rolled": 5358,
    "humili": 5359,
    "slightly": 5360,
    "anticip": 5361,
    "cigarette": 5362,
    "alcoholic": 5363,
    "sympath": 5364,
    "zerland": 5365,
    "contains": 5366,
    "ignorant": 5367,
    "Add": 5368,
    "World": 5369,
    "Words": 5370,
    "environment": 5371,
    "Buy": 5372,
    "pounds": 5373,
    "addicted": 5374,
    "devast": 5375,
    "Greek": 5376,
    "cherry": 5377,
    "Sooner": 5378,
    "accomplish": 5379,
    "lamp": 5380,
    "claims": 5381,
    "Generally": 5382,
    "flashlight": 5383,
    "unemployed": 5384,
    "registered": 5385,
    "Facebook": 5386,
    "skep": 5387,
    "Human": 5388,
    "laptop": 5389,
    "insisted": 5390,
    "demonstr": 5391,
    "amends": 5392,
    "pregnant": 5393,
    "resourceful": 5394,
    "Fortunately": 5395,
    "Suddenly": 5396,
    "Switzerland": 5397,
    "delivered": 5398,
    "11": 5399,
    "40": 5400,
    "500": 5401,
    "Arab": 5402,
    "Bad": 5403,
    "Dri": 5404,
    "Des": 5405,
    "Dinner": 5406,
    "Fish": 5407,
    "Hi": 5408,
    "Lat": 5409,
    "Ne": 5410,
    "Oly": 5411,
    "Sing": 5412,
    "Walk": 5413,
    "bac": 5414,
    "based": 5415,
    "eth": 5416,
    "ems": 5417,
    "hitting": 5418,
    "iP": 5419,
    "jury": 5420,
    "kward": 5421,
    "mut": 5422,
    "osen": 5423,
    "sac": 5424,
    "uine": 5425,
    "ution": 5426,
    "yst": 5427,
    "incompetent": 5428,
    "tore": 5429,
    "onto": 5430,
    "encouraged": 5431,
    "itary": 5432,
    "beef": 5433,
    "idy": 5434,
    "lips": 5435,
    "verb": 5436,
    "forgetting": 5437,
    "forgiven": 5438,
    "loses": 5439,
    "adults": 5440,
    "role": 5441,
    "hilar": 5442,
    "unci": 5443,
    "fection": 5444,
    "anytime": 5445,
    "accompany": 5446,
    "cot": 5447,
    "copies": 5448,
    "pepper": 5449,
    "icy": 5450,
    "irrit": 5451,
    "trai": 5452,
    "trapped": 5453,
    "plate": 5454,
    "plastic": 5455,
    "deals": 5456,
    "posed": 5457,
    "poems": 5458,
    "hypo": 5459,
    "quent": 5460,
    "contribu": 5461,
    "angel": 5462,
    "command": 5463,
    "composition": 5464,
    "faults": 5465,
    "fries": 5466,
    "rences": 5467,
    "prefers": 5468,
    "mum": 5469,
    "ttery": 5470,
    "stands": 5471,
    "roommate": 5472,
    "stays": 5473,
    "trump": 5474,
    "greed": 5475,
    "shooting": 5476,
    "ization": 5477,
    "minor": 5478,
    "awkward": 5479,
    "blush": 5480,
    "classes": 5481,
    "ficial": 5482,
    "founded": 5483,
    "desire": 5484,
    "counts": 5485,
    "pier": 5486,
    "Being": 5487,
    "menu": 5488,
    "kidn": 5489,
    "Instead": 5490,
    "scr": 5491,
    "shaking": 5492,
    "muscle": 5493,
    "Start": 5494,
    "classical": 5495,
    "alibi": 5496,
    "confuse": 5497,
    "babysit": 5498,
    "sunset": 5499,
    "presents": 5500,
    "genuine": 5501,
    "realistic": 5502,
    "pickpockets": 5503,
    "hospit": 5504,
    "male": 5505,
    "coln": 5506,
    "pianist": 5507,
    "considering": 5508,
    "scientists": 5509,
    "oppon": 5510,
    "valid": 5511,
    "gently": 5512,
    "arranged": 5513,
    "bathtub": 5514,
    "postcard": 5515,
    "destination": 5516,
    "pharm": 5517,
    "foreigners": 5518,
    "chain": 5519,
    "bottles": 5520,
    "memories": 5521,
    "politely": 5522,
    "vegetarian": 5523,
    "believable": 5524,
    "murdered": 5525,
    "European": 5526,
    "tasted": 5527,
    "amazed": 5528,
    "squir": 5529,
    "determine": 5530,
    "Compared": 5531,
    "cabin": 5532,
    "spelling": 5533,
    "cloudy": 5534,
    "stylish": 5535,
    "records": 5536,
    "textbook": 5537,
    "repeated": 5538,
    "cheerful": 5539,
    "sandwiches": 5540,
    "predict": 5541,
    "battery": 5542,
    "criticism": 5543,
    "celebrate": 5544,
    "scarf": 5545,
    "remarkable": 5546,
    "insecure": 5547,
    "wealthy": 5548,
    "alternatives": 5549,
    "errors": 5550,
    "source": 5551,
    "defend": 5552,
    "deceived": 5553,
    "envy": 5554,
    "outraged": 5555,
    "priority": 5556,
    "India": 5557,
    "heavily": 5558,
    "osity": 5559,
    "underestimate": 5560,
    "standards": 5561,
    "branch": 5562,
    "opposite": 5563,
    "remote": 5564,
    "interpreter": 5565,
    "Lincoln": 5566,
    "tolerate": 5567,
    "spilled": 5568,
    "burglar": 5569,
    "Hawai": 5570,
    "Thursday": 5571,
    "trousers": 5572,
    "flexible": 5573,
    "Latin": 5574,
    "Olymp": 5575,
    "hilarious": 5576,
    "45": 5577,
    "80": 5578,
    "Cu": 5579,
    "Cross": 5580,
    "Drop": 5581,
    "Ele": 5582,
    "ID": 5583,
    "Mr": 5584,
    "Nor": 5585,
    "Nice": 5586,
    "Pare": 5587,
    "Pick": 5588,
    "Qu": 5589,
    "Res": 5590,
    "athing": 5591,
    "banged": 5592,
    "dated": 5593,
    "dining": 5594,
    "ea": 5595,
    "equi": 5596,
    "fab": 5597,
    "gri": 5598,
    "ired": 5599,
    "itor": 5600,
    "ials": 5601,
    "junk": 5602,
    "mun": 5603,
    "nin": 5604,
    "nia": 5605,
    "oyst": 5606,
    "pin": 5607,
    "pal": 5608,
    "pow": 5609,
    "pure": 5610,
    "rating": 5611,
    "sir": 5612,
    "tan": 5613,
    "thri": 5614,
    "thieve": 5615,
    "ints": 5616,
    "resh": 5617,
    "relu": 5618,
    "resi": 5619,
    "reserve": 5620,
    "tone": 5621,
    "heated": 5622,
    "mechan": 5623,
    "ases": 5624,
    "aspir": 5625,
    "orable": 5626,
    "enger": 5627,
    "envious": 5628,
    "stif": 5629,
    "arth": 5630,
    "arrog": 5631,
    "lemon": 5632,
    "level": 5633,
    "haun": 5634,
    "sec": 5635,
    "lient": 5636,
    "chi": 5637,
    "verted": 5638,
    "loving": 5639,
    "riosity": 5640,
    "advent": 5641,
    "ros": 5642,
    "notes": 5643,
    "hiking": 5644,
    "unlocked": 5645,
    "okie": 5646,
    "mocr": 5647,
    "aces": 5648,
    "acts": 5649,
    "tran": 5650,
    "trade": 5651,
    "ender": 5652,
    "delic": 5653,
    "redu": 5654,
    "stores": 5655,
    "ives": 5656,
    "ulti": 5657,
    "process": 5658,
    "print": 5659,
    "precise": 5660,
    "sphere": 5661,
    "longest": 5662,
    "manual": 5663,
    "bodyguard": 5664,
    "thoughts": 5665,
    "backed": 5666,
    "bush": 5667,
    "career": 5668,
    "otherwise": 5669,
    "geous": 5670,
    "asser": 5671,
    "overre": 5672,
    "brushed": 5673,
    "partner": 5674,
    "gray": 5675,
    "buys": 5676,
    "wins": 5677,
    "nerves": 5678,
    "rug": 5679,
    "mature": 5680,
    "Yours": 5681,
    "breathing": 5682,
    "pays": 5683,
    "pretti": 5684,
    "lessons": 5685,
    "Before": 5686,
    "owned": 5687,
    "expectations": 5688,
    "pressing": 5689,
    "forgetful": 5690,
    "roads": 5691,
    "telephoned": 5692,
    "sunny": 5693,
    "wheat": 5694,
    "messed": 5695,
    "riding": 5696,
    "landed": 5697,
    "puppy": 5698,
    "risked": 5699,
    "response": 5700,
    "checking": 5701,
    "situations": 5702,
    "Remove": 5703,
    "dye": 5704,
    "sym": 5705,
    "satisfactory": 5706,
    "cycl": 5707,
    "fatter": 5708,
    "bankrupt": 5709,
    "arrives": 5710,
    "Answer": 5711,
    "knitting": 5712,
    "arrange": 5713,
    "argued": 5714,
    "colors": 5715,
    "viously": 5716,
    "hundreds": 5717,
    "basic": 5718,
    "avoiding": 5719,
    "charity": 5720,
    "charged": 5721,
    "hostages": 5722,
    "stones": 5723,
    "panicked": 5724,
    "annoy": 5725,
    "grounded": 5726,
    "whist": 5727,
    "Compare": 5728,
    "slipp": 5729,
    "competition": 5730,
    "pretending": 5731,
    "drawing": 5732,
    "tourist": 5733,
    "prints": 5734,
    "frost": 5735,
    "increased": 5736,
    "increasing": 5737,
    "romantic": 5738,
    "director": 5739,
    "benef": 5740,
    "pronunci": 5741,
    "psycho": 5742,
    "community": 5743,
    "humid": 5744,
    "declined": 5745,
    "announced": 5746,
    "zero": 5747,
    "kilometers": 5748,
    "rapid": 5749,
    "rubbed": 5750,
    "religion": 5751,
    "consult": 5752,
    "Whenever": 5753,
    "tracked": 5754,
    "blowing": 5755,
    "defeat": 5756,
    "develop": 5757,
    "conclusion": 5758,
    "literature": 5759,
    "influence": 5760,
    "rotten": 5761,
    "praise": 5762,
    "pollution": 5763,
    "dragged": 5764,
    "currently": 5765,
    "plumber": 5766,
    "Shake": 5767,
    "Step": 5768,
    "gorgeous": 5769,
    "diamond": 5770,
    "reputation": 5771,
    "blonde": 5772,
    "Judging": 5773,
    "bluff": 5774,
    "tomatoes": 5775,
    "subscribe": 5776,
    "devastated": 5777,
    "skeptical": 5778,
    "greedy": 5779,
    "scratch": 5780,
    "squirrel": 5781,
    "Hawaii": 5782,
    "Parents": 5783,
    "oysters": 5784,
    "thieves": 5785,
    "reluct": 5786,
    "resilient": 5787,
    "haunted": 5788,
    "pronunciation": 5789,
    "17": 5790,
    "Bus": 5791,
    "Cali": 5792,
    "Clean": 5793,
    "Earth": 5794,
    "Fl": 5795,
    "Long": 5796,
    "Pass": 5797,
    "Ra": 5798,
    "Str": 5799,
    "Send": 5800,
    "Swim": 5801,
    "Spend": 5802,
    "Tha": 5803,
    "Wed": 5804,
    "Wake": 5805,
    "blast": 5806,
    "caf": 5807,
    "dried": 5808,
    "ghe": 5809,
    "glo": 5810,
    "mig": 5811,
    "ops": 5812,
    "pit": 5813,
    "pant": 5814,
    "pairs": 5815,
    "pulse": 5816,
    "rant": 5817,
    "rank": 5818,
    "rushed": 5819,
    "sam": 5820,
    "sper": 5821,
    "sank": 5822,
    "tit": 5823,
    "tent": 5824,
    "va": 5825,
    "vague": 5826,
    "wink": 5827,
    "wished": 5828,
    "wings": 5829,
    "ygen": 5830,
    "zation": 5831,
    "thus": 5832,
    "thless": 5833,
    "instant": 5834,
    "intimid": 5835,
    "independent": 5836,
    "renew": 5837,
    "ano": 5838,
    "anu": 5839,
    "atmo": 5840,
    "heater": 5841,
    "omy": 5842,
    "stink": 5843,
    "hamb": 5844,
    "beers": 5845,
    "behaving": 5846,
    "besides": 5847,
    "sex": 5848,
    "sets": 5849,
    "selected": 5850,
    "alo": 5851,
    "Hello": 5852,
    "alley": 5853,
    "fornia": 5854,
    "lottery": 5855,
    "rific": 5856,
    "espe": 5857,
    "essay": 5858,
    "adic": 5859,
    "added": 5860,
    "candid": 5861,
    "hilo": 5862,
    "highe": 5863,
    "fel": 5864,
    "actions": 5865,
    "terror": 5866,
    "irrelevant": 5867,
    "ows": 5868,
    "agging": 5869,
    "amusing": 5870,
    "ending": 5871,
    "ural": 5872,
    "shine": 5873,
    "aven": 5874,
    "points": 5875,
    "exe": 5876,
    "expi": 5877,
    "reduce": 5878,
    "needing": 5879,
    "justice": 5880,
    "estate": 5881,
    "comfort": 5882,
    "ames": 5883,
    "permit": 5884,
    "prince": 5885,
    "spec": 5886,
    "image": 5887,
    "chores": 5888,
    "misjudged": 5889,
    "forecast": 5890,
    "foreigner": 5891,
    "discre": 5892,
    "speakers": 5893,
    "Whoever": 5894,
    "typ": 5895,
    "ickering": 5896,
    "overheard": 5897,
    "overworked": 5898,
    "overslept": 5899,
    "vili": 5900,
    "files": 5901,
    "smashed": 5902,
    "letting": 5903,
    "cheat": 5904,
    "minded": 5905,
    "ruthless": 5906,
    "izing": 5907,
    "Someday": 5908,
    "pardon": 5909,
    "pical": 5910,
    "monkey": 5911,
    "payment": 5912,
    "Throw": 5913,
    "swimmer": 5914,
    "priest": 5915,
    "listens": 5916,
    "tricked": 5917,
    "tricks": 5918,
    "shift": 5919,
    "voices": 5920,
    "killing": 5921,
    "sca": 5922,
    "cooks": 5923,
    "Change": 5924,
    "Chris": 5925,
    "stream": 5926,
    "sung": 5927,
    "sunrise": 5928,
    "international": 5929,
    "messages": 5930,
    "laughs": 5931,
    "collected": 5932,
    "dealing": 5933,
    "brings": 5934,
    "signs": 5935,
    "restaurants": 5936,
    "fixing": 5937,
    "vacu": 5938,
    "cliff": 5939,
    "thankful": 5940,
    "imagin": 5941,
    "patients": 5942,
    "holds": 5943,
    "teens": 5944,
    "frequent": 5945,
    "punched": 5946,
    "sleeve": 5947,
    "regrets": 5948,
    "customs": 5949,
    "powerless": 5950,
    "phr": 5951,
    "sending": 5952,
    "ators": 5953,
    "barber": 5954,
    "carrying": 5955,
    "pulling": 5956,
    "respectful": 5957,
    "avoided": 5958,
    "Canadians": 5959,
    "typewriter": 5960,
    "20th": 5961,
    "exerc": 5962,
    "knocking": 5963,
    "habits": 5964,
    "guards": 5965,
    "grapes": 5966,
    "graphy": 5967,
    "compliment": 5968,
    "slam": 5969,
    "slapped": 5970,
    "engineer": 5971,
    "responsibilities": 5972,
    "property": 5973,
    "requires": 5974,
    "humanity": 5975,
    "textbooks": 5976,
    "bowl": 5977,
    "bowed": 5978,
    "directions": 5979,
    "quarrel": 5980,
    "scarce": 5981,
    "regards": 5982,
    "daily": 5983,
    "cooperation": 5984,
    "objected": 5985,
    "skills": 5986,
    "leaned": 5987,
    "measures": 5988,
    "society": 5989,
    "victims": 5990,
    "affects": 5991,
    "Luckily": 5992,
    "objection": 5993,
    "stretched": 5994,
    "various": 5995,
    "fuss": 5996,
    "Correct": 5997,
    "Meet": 5998,
    "spiders": 5999,
    "amental": 6000,
    "oxygen": 6001,
    "statue": 6002,
    "absorbed": 6003,
    "flirting": 6004,
    "Obviously": 6005,
    "sneaky": 6006,
    "Clearly": 6007,
    "resemble": 6008,
    "acquired": 6009,
    "minimum": 6010,
    "humiliated": 6011,
    "trumpet": 6012,
    "kidnapped": 6013,
    "fabulous": 6014,
    "symbo": 6015,
    "bluffing": 6016,
    "California": 6017,
    "Swimming": 6018,
    "atmosphere": 6019,
    "hambur": 6020,
    "especially": 6021,
    "highest": 6022,
    "14": 6023,
    "25": 6024,
    "Bre": 6025,
    "Black": 6026,
    "Cows": 6027,
    "Grand": 6028,
    "Hok": 6029,
    "Janu": 6030,
    "Learning": 6031,
    "Nar": 6032,
    "Rep": 6033,
    "Sep": 6034,
    "Spr": 6035,
    "Stri": 6036,
    "Thi": 6037,
    "Tues": 6038,
    "Vis": 6039,
    "Wow": 6040,
    "atory": 6041,
    "bing": 6042,
    "cured": 6043,
    "eu": 6044,
    "emo": 6045,
    "filed": 6046,
    "ico": 6047,
    "kick": 6048,
    "kai": 6049,
    "lcome": 6050,
    "lting": 6051,
    "lung": 6052,
    "mac": 6053,
    "ni": 6054,
    "ophone": 6055,
    "pended": 6056,
    "sake": 6057,
    "tun": 6058,
    "tank": 6059,
    "tidy": 6060,
    "xophone": 6061,
    "ya": 6062,
    "zard": 6063,
    "ino": 6064,
    "inher": 6065,
    "inct": 6066,
    "insp": 6067,
    "inju": 6068,
    "reve": 6069,
    "reven": 6070,
    "reward": 6071,
    "reserved": 6072,
    "replaced": 6073,
    "toms": 6074,
    "attor": 6075,
    "thesis": 6076,
    "melted": 6077,
    "assure": 6078,
    "associ": 6079,
    "lly": 6080,
    "sti": 6081,
    "stit": 6082,
    "stall": 6083,
    "stro": 6084,
    "stab": 6085,
    "leap": 6086,
    "nology": 6087,
    "lion": 6088,
    "goss": 6089,
    "holes": 6090,
    "anta": 6091,
    "nesday": 6092,
    "rifle": 6093,
    "adjust": 6094,
    "rocks": 6095,
    "roverted": 6096,
    "soap": 6097,
    "cano": 6098,
    "Welcome": 6099,
    "tember": 6100,
    "teased": 6101,
    "unknown": 6102,
    "fewer": 6103,
    "festi": 6104,
    "modest": 6105,
    "according": 6106,
    "sue": 6107,
    "teries": 6108,
    "icians": 6109,
    "irmed": 6110,
    "owner": 6111,
    "trout": 6112,
    "tract": 6113,
    "agon": 6114,
    "aging": 6115,
    "agious": 6116,
    "upside": 6117,
    "saxophone": 6118,
    "ongress": 6119,
    "pover": 6120,
    "hyp": 6121,
    "iful": 6122,
    "happiest": 6123,
    "exit": 6124,
    "indic": 6125,
    "stove": 6126,
    "focused": 6127,
    "astro": 6128,
    "quitting": 6129,
    "comic": 6130,
    "proverb": 6131,
    "talkative": 6132,
    "previous": 6133,
    "tools": 6134,
    "spont": 6135,
    "hometown": 6136,
    "rights": 6137,
    "choir": 6138,
    "offend": 6139,
    "wrap": 6140,
    "wrist": 6141,
    "items": 6142,
    "shed": 6143,
    "div": 6144,
    "disaster": 6145,
    "typical": 6146,
    "overseas": 6147,
    "handwriting": 6148,
    "broad": 6149,
    "grade": 6150,
    "differs": 6151,
    "create": 6152,
    "showing": 6153,
    "minister": 6154,
    "compar": 6155,
    "athle": 6156,
    "Thousand": 6157,
    "surprises": 6158,
    "greatly": 6159,
    "heads": 6160,
    "cidents": 6161,
    "enjoys": 6162,
    "contagious": 6163,
    "jewel": 6164,
    "sensible": 6165,
    "policemen": 6166,
    "countless": 6167,
    "laz": 6168,
    "attached": 6169,
    "recipe": 6170,
    "crush": 6171,
    "suming": 6172,
    "spoiled": 6173,
    "businessman": 6174,
    "examine": 6175,
    "warrant": 6176,
    "richer": 6177,
    "guns": 6178,
    "swept": 6179,
    "sixty": 6180,
    "quietly": 6181,
    "checks": 6182,
    "version": 6183,
    "necessarily": 6184,
    "convic": 6185,
    "maintain": 6186,
    "experiences": 6187,
    "teenagers": 6188,
    "Move": 6189,
    "opposed": 6190,
    "sushi": 6191,
    "struggled": 6192,
    "lawyers": 6193,
    "guitarist": 6194,
    "correctly": 6195,
    "insist": 6196,
    "burnt": 6197,
    "propose": 6198,
    "199": 6199,
    "protection": 6200,
    "relief": 6201,
    "scheduled": 6202,
    "talents": 6203,
    "paste": 6204,
    "beaten": 6205,
    "behaved": 6206,
    "marks": 6207,
    "searching": 6208,
    "pets": 6209,
    "victory": 6210,
    "interrupted": 6211,
    "toothache": 6212,
    "toothpaste": 6213,
    "recommended": 6214,
    "flattered": 6215,
    "Accidents": 6216,
    "lacks": 6217,
    "princi": 6218,
    "Food": 6219,
    "frog": 6220,
    "majority": 6221,
    "disgusted": 6222,
    "predictable": 6223,
    "circumstances": 6224,
    "aneous": 6225,
    "horrified": 6226,
    "fuel": 6227,
    "furious": 6228,
    "tends": 6229,
    "cows": 6230,
    "destroy": 6231,
    "volunteers": 6232,
    "software": 6233,
    "allergies": 6234,
    "potato": 6235,
    "insects": 6236,
    "fields": 6237,
    "Kobe": 6238,
    "affected": 6239,
    "defeated": 6240,
    "resources": 6241,
    "developed": 6242,
    "addict": 6243,
    "disturbing": 6244,
    "CDs": 6245,
    "advertise": 6246,
    "curtains": 6247,
    "Washing": 6248,
    "Asia": 6249,
    "champion": 6250,
    "frustrated": 6251,
    "laundry": 6252,
    "obliged": 6253,
    "practicing": 6254,
    "guarantee": 6255,
    "surrender": 6256,
    "Better": 6257,
    "Happy": 6258,
    "Mexico": 6259,
    "Honesty": 6260,
    "consequences": 6261,
    "Brazil": 6262,
    "conduct": 6263,
    "Respect": 6264,
    "arrogant": 6265,
    "delicate": 6266,
    "prettier": 6267,
    "whistling": 6268,
    "reluctant": 6269,
    "Business": 6270,
    "Wednesday": 6271,
    "thusi": 6272,
    "specific": 6273,
    "Christi": 6274,
    "frequently": 6275,
    "symbol": 6276,
    "Hokkai": 6277,
    "January": 6278,
    "September": 6279,
    "Spring": 6280,
    "attorney": 6281,
    "gossip": 6282,
    "spontaneous": 6283,
    "Thousands": 6284,
    "Hokkaido": 6285,
    "60": 6286,
    "BI": 6287,
    "Beat": 6288,
    "Cl": 6289,
    "City": 6290,
    "Cath": 6291,
    "FO": 6292,
    "FBI": 6293,
    "Hall": 6294,
    "Hun": 6295,
    "Lie": 6296,
    "Ma": 6297,
    "Mar": 6298,
    "Mine": 6299,
    "Old": 6300,
    "Pr": 6301,
    "Rab": 6302,
    "Right": 6303,
    "UFO": 6304,
    "White": 6305,
    "bli": 6306,
    "cort": 6307,
    "ciful": 6308,
    "east": 6309,
    "eper": 6310,
    "flights": 6311,
    "gay": 6312,
    "ially": 6313,
    "lid": 6314,
    "lined": 6315,
    "lph": 6316,
    "mild": 6317,
    "olic": 6318,
    "pite": 6319,
    "plot": 6320,
    "pages": 6321,
    "sin": 6322,
    "sch": 6323,
    "silk": 6324,
    "tles": 6325,
    "ume": 6326,
    "refr": 6327,
    "recess": 6328,
    "resid": 6329,
    "remove": 6330,
    "reconsider": 6331,
    "toe": 6332,
    "toned": 6333,
    "tories": 6334,
    "analy": 6335,
    "erly": 6336,
    "thetic": 6337,
    "asure": 6338,
    "astron": 6339,
    "enna": 6340,
    "enthusi": 6341,
    "iter": 6342,
    "leather": 6343,
    "hack": 6344,
    "bes": 6345,
    "bees": 6346,
    "beans": 6347,
    "Young": 6348,
    "weeds": 6349,
    "forces": 6350,
    "forbid": 6351,
    "lowered": 6352,
    "escort": 6353,
    "rol": 6354,
    "outcome": 6355,
    "tear": 6356,
    "und": 6357,
    "undress": 6358,
    "unnecessary": 6359,
    "fee": 6360,
    "female": 6361,
    "term": 6362,
    "pest": 6363,
    "pear": 6364,
    "agne": 6365,
    "someplace": 6366,
    "amused": 6367,
    "ammun": 6368,
    "ups": 6369,
    "plus": 6370,
    "boil": 6371,
    "abouts": 6372,
    "safer": 6373,
    "deposit": 6374,
    "derer": 6375,
    "existen": 6376,
    "stomac": 6377,
    "conserv": 6378,
    "angle": 6379,
    "comments": 6380,
    "ause": 6381,
    "proved": 6382,
    "tens": 6383,
    "preaching": 6384,
    "buttoned": 6385,
    "homesick": 6386,
    "chopstick": 6387,
    "selfie": 6388,
    "applau": 6389,
    "buses": 6390,
    "disco": 6391,
    "disgu": 6392,
    "discover": 6393,
    "distinguish": 6394,
    "assy": 6395,
    "callous": 6396,
    "lux": 6397,
    "shovel": 6398,
    "partners": 6399,
    "smoked": 6400,
    "Boys": 6401,
    "surfing": 6402,
    "cheered": 6403,
    "merciful": 6404,
    "parent": 6405,
    "Wouldn": 6406,
    "awa": 6407,
    "drill": 6408,
    "watermel": 6409,
    "Allow": 6410,
    "colds": 6411,
    "visits": 6412,
    "causes": 6413,
    "designed": 6414,
    "Beware": 6415,
    "heading": 6416,
    "differences": 6417,
    "dows": 6418,
    "nuclear": 6419,
    "agreeing": 6420,
    "Station": 6421,
    "follows": 6422,
    "hunger": 6423,
    "treasure": 6424,
    "tape": 6425,
    "crushed": 6426,
    "confirmed": 6427,
    "horror": 6428,
    "snowman": 6429,
    "snowstorm": 6430,
    "obst": 6431,
    "observant": 6432,
    "balls": 6433,
    "finishing": 6434,
    "reality": 6435,
    "excused": 6436,
    "shortage": 6437,
    "refle": 6438,
    "landing": 6439,
    "cups": 6440,
    "worthless": 6441,
    "touching": 6442,
    "grandparents": 6443,
    "vacant": 6444,
    "Recent": 6445,
    "imagining": 6446,
    "biased": 6447,
    "flows": 6448,
    "chairman": 6449,
    "entious": 6450,
    "suspended": 6451,
    "approached": 6452,
    "billion": 6453,
    "knives": 6454,
    "immediate": 6455,
    "speechless": 6456,
    "entering": 6457,
    "destiny": 6458,
    "occup": 6459,
    "wooden": 6460,
    "relaxing": 6461,
    "windy": 6462,
    "organization": 6463,
    "leads": 6464,
    "leading": 6465,
    "ladder": 6466,
    "ladies": 6467,
    "basis": 6468,
    "murderer": 6469,
    "crimes": 6470,
    "deliver": 6471,
    "yelled": 6472,
    "tempting": 6473,
    "grammar": 6474,
    "attracted": 6475,
    "tightly": 6476,
    "athetic": 6477,
    "squee": 6478,
    "treatment": 6479,
    "elderly": 6480,
    "naturally": 6481,
    "conscientious": 6482,
    "earthquakes": 6483,
    "barks": 6484,
    "barked": 6485,
    "whistle": 6486,
    "Comp": 6487,
    "slip": 6488,
    "economic": 6489,
    "contradic": 6490,
    "cousins": 6491,
    "described": 6492,
    "campus": 6493,
    "intelligence": 6494,
    "regarded": 6495,
    "improving": 6496,
    "challeng": 6497,
    "Cookie": 6498,
    "dawn": 6499,
    "cooperate": 6500,
    "Russia": 6501,
    "ignorance": 6502,
    "Hope": 6503,
    "defense": 6504,
    "faithful": 6505,
    "contented": 6506,
    "bald": 6507,
    "limited": 6508,
    "limits": 6509,
    "promotion": 6510,
    "Buying": 6511,
    "sinking": 6512,
    "honor": 6513,
    "included": 6514,
    "affairs": 6515,
    "railroad": 6516,
    "Apparently": 6517,
    "robbery": 6518,
    "communicate": 6519,
    "communication": 6520,
    "mosquito": 6521,
    "exaggerate": 6522,
    "blanket": 6523,
    "punishment": 6524,
    "massage": 6525,
    "astonished": 6526,
    "nodded": 6527,
    "rational": 6528,
    "Playing": 6529,
    "wandered": 6530,
    "accusing": 6531,
    "military": 6532,
    "identify": 6533,
    "alphabet": 6534,
    "crafty": 6535,
    "Arabic": 6536,
    "Despite": 6537,
    "traitor": 6538,
    "babysitter": 6539,
    "ninety": 6540,
    "stiff": 6541,
    "overreacting": 6542,
    "Raise": 6543,
    "Spending": 6544,
    "Break": 6545,
    "Thir": 6546,
    "Tuesday": 6547,
    "emotions": 6548,
    "injuries": 6549,
    "stroke": 6550,
    "poverty": 6551,
    "Catholic": 6552,
    "refrain": 6553,
    "ammunition": 6554,
    "existence": 6555,
    "stomacha": 6556,
    "conservative": 6557,
    "chopsticks": 6558,
    "70": 6559,
    "Bible": 6560,
    "Cri": 6561,
    "Col": 6562,
    "During": 6563,
    "Eif": 6564,
    "Fri": 6565,
    "Fast": 6566,
    "Or": 6567,
    "Pol": 6568,
    "Sci": 6569,
    "Sleep": 6570,
    "Sign": 6571,
    "Swed": 6572,
    "Six": 6573,
    "Santa": 6574,
    "Tur": 6575,
    "Wi": 6576,
    "Work": 6577,
    "bent": 6578,
    "bak": 6579,
    "bars": 6580,
    "bene": 6581,
    "dates": 6582,
    "dangers": 6583,
    "evacu": 6584,
    "fou": 6585,
    "faint": 6586,
    "gree": 6587,
    "hint": 6588,
    "iod": 6589,
    "iety": 6590,
    "iversity": 6591,
    "lin": 6592,
    "labor": 6593,
    "listed": 6594,
    "mous": 6595,
    "mitting": 6596,
    "ns": 6597,
    "og": 6598,
    "ots": 6599,
    "ologist": 6600,
    "pes": 6601,
    "sar": 6602,
    "scow": 6603,
    "saint": 6604,
    "tti": 6605,
    "tes": 6606,
    "uge": 6607,
    "wage": 6608,
    "zi": 6609,
    "invention": 6610,
    "revol": 6611,
    "review": 6612,
    "refund": 6613,
    "anna": 6614,
    "anony": 6615,
    "eria": 6616,
    "errand": 6617,
    "iss": 6618,
    "heaven": 6619,
    "hetti": 6620,
    "mester": 6621,
    "vey": 6622,
    "orph": 6623,
    "eness": 6624,
    "noises": 6625,
    "semester": 6626,
    "ided": 6627,
    "liqu": 6628,
    "lict": 6629,
    "lieve": 6630,
    "chim": 6631,
    "chased": 6632,
    "verge": 6633,
    "alert": 6634,
    "alarmed": 6635,
    "washes": 6636,
    "former": 6637,
    "nesses": 6638,
    "tible": 6639,
    "ric": 6640,
    "adapt": 6641,
    "adorable": 6642,
    "sock": 6643,
    "sophy": 6644,
    "cease": 6645,
    "unturned": 6646,
    "unfortunate": 6647,
    "coal": 6648,
    "icient": 6649,
    "owed": 6650,
    "worm": 6651,
    "worries": 6652,
    "aghetti": 6653,
    "aming": 6654,
    "pler": 6655,
    "boiling": 6656,
    "boiled": 6657,
    "aves": 6658,
    "dee": 6659,
    "decre": 6660,
    "depri": 6661,
    "degree": 6662,
    "ssom": 6663,
    "exhibit": 6664,
    "fol": 6665,
    "astute": 6666,
    "proced": 6667,
    "prophe": 6668,
    "tenti": 6669,
    "perman": 6670,
    "printer": 6671,
    "prejud": 6672,
    "igning": 6673,
    "ighed": 6674,
    "spaghetti": 6675,
    "inevit": 6676,
    "imated": 6677,
    "impolite": 6678,
    "offens": 6679,
    "wrapped": 6680,
    "mansion": 6681,
    "shell": 6682,
    "drum": 6683,
    "dies": 6684,
    "guilt": 6685,
    "mustache": 6686,
    "disobeyed": 6687,
    "icky": 6688,
    "overcoat": 6689,
    "schools": 6690,
    "afterwards": 6691,
    "Everywhere": 6692,
    "partly": 6693,
    "dresses": 6694,
    "caution": 6695,
    "catches": 6696,
    "chemis": 6697,
    "startled": 6698,
    "matically": 6699,
    "minis": 6700,
    "medal": 6701,
    "sition": 6702,
    "beings": 6703,
    "lighter": 6704,
    "lightly": 6705,
    "strang": 6706,
    "pipe": 6707,
    "swims": 6708,
    "gger": 6709,
    "gladly": 6710,
    "Believe": 6711,
    "trigger": 6712,
    "farther": 6713,
    "imports": 6714,
    "sip": 6715,
    "vocation": 6716,
    "scam": 6717,
    "scrat": 6718,
    "cookie": 6719,
    "trusting": 6720,
    "numb": 6721,
    "passing": 6722,
    "council": 6723,
    "explaining": 6724,
    "tales": 6725,
    "conflict": 6726,
    "formal": 6727,
    "horiz": 6728,
    "curse": 6729,
    "presented": 6730,
    "dolls": 6731,
    "shortly": 6732,
    "picky": 6733,
    "refresh": 6734,
    "dealt": 6735,
    "sixteen": 6736,
    "travels": 6737,
    "travelers": 6738,
    "blocks": 6739,
    "blossom": 6740,
    "terrific": 6741,
    "novelist": 6742,
    "transfer": 6743,
    "Moscow": 6744,
    "smelled": 6745,
    "extent": 6746,
    "reception": 6747,
    "Unless": 6748,
    "warming": 6749,
    "approval": 6750,
    "cellar": 6751,
    "curiosity": 6752,
    "injury": 6753,
    "earliest": 6754,
    "193": 6755,
    "195": 6756,
    "skipped": 6757,
    "packing": 6758,
    "clude": 6759,
    "steady": 6760,
    "basement": 6761,
    "proficient": 6762,
    "bassoon": 6763,
    "blinded": 6764,
    "fifth": 6765,
    "sufficient": 6766,
    "Always": 6767,
    "deliber": 6768,
    "privately": 6769,
    "accountant": 6770,
    "panic": 6771,
    "elders": 6772,
    "conscience": 6773,
    "intends": 6774,
    "groups": 6775,
    "suspected": 6776,
    "Saturdays": 6777,
    "investment": 6778,
    "interrupting": 6779,
    "sharpen": 6780,
    "wisdom": 6781,
    "Says": 6782,
    "shelter": 6783,
    "predicted": 6784,
    "batteries": 6785,
    "criticized": 6786,
    "dishone": 6787,
    "volunteering": 6788,
    "tomic": 6789,
    "speeding": 6790,
    "fashioned": 6791,
    "separate": 6792,
    "decline": 6793,
    "savings": 6794,
    "gamble": 6795,
    "sympathetic": 6796,
    "Hotel": 6797,
    "measure": 6798,
    "volution": 6799,
    "photographer": 6800,
    "puzzled": 6801,
    "heights": 6802,
    "score": 6803,
    "Britain": 6804,
    "technology": 6805,
    "participated": 6806,
    "materials": 6807,
    "citizens": 6808,
    "shouted": 6809,
    "Asian": 6810,
    "Finally": 6811,
    "install": 6812,
    "champagne": 6813,
    "mosquitoes": 6814,
    "construction": 6815,
    "sheets": 6816,
    "effects": 6817,
    "congratulated": 6818,
    "relatives": 6819,
    "Music": 6820,
    "creepy": 6821,
    "crawling": 6822,
    "microphone": 6823,
    "troops": 6824,
    "troubled": 6825,
    "possess": 6826,
    "intrigued": 6827,
    "collapsed": 6828,
    "Korean": 6829,
    "Vienna": 6830,
    "wolf": 6831,
    "demonstration": 6832,
    "sacrific": 6833,
    "contribute": 6834,
    "muscles": 6835,
    "opponent": 6836,
    "pharmacy": 6837,
    "North": 6838,
    "mechanic": 6839,
    "reduced": 6840,
    "rugby": 6841,
    "rapidly": 6842,
    "title": 6843,
    "hilosophy": 6844,
    "discreet": 6845,
    "scarcely": 6846,
    "resembles": 6847,
    "inherited": 6848,
    "festival": 6849,
    "hypnoti": 6850,
    "Mathematics": 6851,
    "Recently": 6852,
    "stomachache": 6853,
    "Eiffel": 6854,
    "Science": 6855,
    "sarcas": 6856,
    "anonymous": 6857,
    "chimney": 6858,
    "deprived": 6859,
    "permanent": 6860,
    "inevitable": 6861,
    "offensive": 6862,
    "scratched": 6863,
    "!\"": 6864,
    "23": 6865,
    "AT": 6866,
    "Abo": 6867,
    "Aug": 6868,
    "Brush": 6869,
    "Cli": 6870,
    "Coffee": 6871,
    "Congress": 6872,
    "Eve": 6873,
    "Five": 6874,
    "Girl": 6875,
    "House": 6876,
    "Ju": 6877,
    "Kids": 6878,
    "Lake": 6879,
    "Lend": 6880,
    "Marri": 6881,
    "Pac": 6882,
    "Part": 6883,
    "Pers": 6884,
    "Ru": 6885,
    "Sto": 6886,
    "Sal": 6887,
    "Tic": 6888,
    "Taste": 6889,
    "Win": 6890,
    "Winter": 6891,
    "Year": 6892,
    "ald": 6893,
    "broom": 6894,
    "bones": 6895,
    "cen": 6896,
    "ctors": 6897,
    "dull": 6898,
    "dorm": 6899,
    "fis": 6900,
    "gall": 6901,
    "gang": 6902,
    "gment": 6903,
    "gra": 6904,
    "guts": 6905,
    "han": 6906,
    "hudd": 6907,
    "iant": 6908,
    "ium": 6909,
    "ivid": 6910,
    "kins": 6911,
    "link": 6912,
    "nause": 6913,
    "pink": 6914,
    "ptions": 6915,
    "rout": 6916,
    "rack": 6917,
    "ruled": 6918,
    "scand": 6919,
    "tap": 6920,
    "ubby": 6921,
    "whel": 6922,
    "ths": 6923,
    "thy": 6924,
    "inde": 6925,
    "incorrect": 6926,
    "include": 6927,
    "anji": 6928,
    "atten": 6929,
    "isol": 6930,
    "heating": 6931,
    "mes": 6932,
    "mere": 6933,
    "aser": 6934,
    "lley": 6935,
    "lliant": 6936,
    "orche": 6937,
    "encourage": 6938,
    "enorm": 6939,
    "stan": 6940,
    "itive": 6941,
    "bels": 6942,
    "dove": 6943,
    "sew": 6944,
    "sessed": 6945,
    "sewing": 6946,
    "severe": 6947,
    "ident": 6948,
    "ching": 6949,
    "chubby": 6950,
    "location": 6951,
    "tick": 6952,
    "tiger": 6953,
    "ricane": 6954,
    "adminis": 6955,
    "root": 6956,
    "robot": 6957,
    "cember": 6958,
    "tex": 6959,
    "hic": 6960,
    "usion": 6961,
    "unbear": 6962,
    "unpleasant": 6963,
    "unreasonable": 6964,
    "unbelievable": 6965,
    "fellow": 6966,
    "acknowled": 6967,
    "tern": 6968,
    "thern": 6969,
    "peas": 6970,
    "iced": 6971,
    "entit": 6972,
    "tration": 6973,
    "traged": 6974,
    "Doctors": 6975,
    "enda": 6976,
    "endar": 6977,
    "urs": 6978,
    "plates": 6979,
    "sailing": 6980,
    "shr": 6981,
    "shining": 6982,
    "dele": 6983,
    "devil": 6984,
    "expressed": 6985,
    "individ": 6986,
    "aki": 6987,
    "justify": 6988,
    "helmet": 6989,
    "quant": 6990,
    "quate": 6991,
    "queen": 6992,
    "conspir": 6993,
    "estab": 6994,
    "artender": 6995,
    "bless": 6996,
    "ishing": 6997,
    "mug": 6998,
    "tool": 6999,
    "oline": 7000,
    "spicy": 7001,
    "speare": 7002,
    "species": 7003,
    "carries": 7004,
    "carbon": 7005,
    "choo": 7006,
    "chocol": 7007,
    "itement": 7008,
    "manip": 7009,
    "glance": 7010,
    "dia": 7011,
    "dial": 7012,
    "housework": 7013,
    "overwhel": 7014,
    "closing": 7015,
    "waits": 7016,
    "waitress": 7017,
    "brid": 7018,
    "marath": 7019,
    "civili": 7020,
    "chewed": 7021,
    "winner": 7022,
    "mostly": 7023,
    "questioning": 7024,
    "minds": 7025,
    "advanced": 7026,
    "matic": 7027,
    "created": 7028,
    "sits": 7029,
    "remembering": 7030,
    "lifetime": 7031,
    "blink": 7032,
    "blaming": 7033,
    "parano": 7034,
    "clar": 7035,
    "clerk": 7036,
    "claimed": 7037,
    "mption": 7038,
    "bits": 7039,
    "painter": 7040,
    "monster": 7041,
    "colder": 7042,
    "desires": 7043,
    "priced": 7044,
    "metal": 7045,
    "votes": 7046,
    "volley": 7047,
    "scrap": 7048,
    "sickness": 7049,
    "passion": 7050,
    "passenger": 7051,
    "stew": 7052,
    "counted": 7053,
    "freezing": 7054,
    "lavery": 7055,
    "bicycles": 7056,
    "dreamer": 7057,
    "troubles": 7058,
    "salmon": 7059,
    "growth": 7060,
    "confide": 7061,
    "countryside": 7062,
    "cutting": 7063,
    "costume": 7064,
    "snows": 7065,
    "snowed": 7066,
    "spoil": 7067,
    "floats": 7068,
    "resort": 7069,
    "completed": 7070,
    "secretly": 7071,
    "complains": 7072,
    "excitement": 7073,
    "heartbroken": 7074,
    "berg": 7075,
    "berty": 7076,
    "causing": 7077,
    "responded": 7078,
    "hospitality": 7079,
    "fairy": 7080,
    "calmed": 7081,
    "calendar": 7082,
    "joining": 7083,
    "norm": 7084,
    "mix": 7085,
    "mixed": 7086,
    "considerate": 7087,
    "freaked": 7088,
    "subur": 7089,
    "resume": 7090,
    "University": 7091,
    "starve": 7092,
    "fooling": 7093,
    "Nowadays": 7094,
    "corrected": 7095,
    "uniform": 7096,
    "unique": 7097,
    "regretted": 7098,
    "gifted": 7099,
    "cutive": 7100,
    "atures": 7101,
    "flute": 7102,
    "phants": 7103,
    "adequate": 7104,
    "receiving": 7105,
    "controlled": 7106,
    "sticky": 7107,
    "locker": 7108,
    "magician": 7109,
    "Express": 7110,
    "marrying": 7111,
    "Seen": 7112,
    "organize": 7113,
    "eyebrow": 7114,
    "gaining": 7115,
    "superior": 7116,
    "production": 7117,
    "profit": 7118,
    "doubtful": 7119,
    "pathetic": 7120,
    "politicians": 7121,
    "opportunities": 7122,
    "region": 7123,
    "brilliant": 7124,
    "delivery": 7125,
    "snickering": 7126,
    "grams": 7127,
    "explode": 7128,
    "seafood": 7129,
    "brightest": 7130,
    "suspects": 7131,
    "courageous": 7132,
    "compete": 7133,
    "employee": 7134,
    "judgement": 7135,
    "wiser": 7136,
    "filthy": 7137,
    "educated": 7138,
    "swallow": 7139,
    "issues": 7140,
    "hesitated": 7141,
    "itution": 7142,
    "furi": 7143,
    "tendency": 7144,
    "quarters": 7145,
    "bulb": 7146,
    "turtles": 7147,
    "towels": 7148,
    "Times": 7149,
    "requested": 7150,
    "despises": 7151,
    "separately": 7152,
    "carelessness": 7153,
    "December": 7154,
    "Trave": 7155,
    "regardless": 7156,
    "anni": 7157,
    "announce": 7158,
    "acquitted": 7159,
    "statement": 7160,
    "concluded": 7161,
    "negotiate": 7162,
    "negotiations": 7163,
    "kilos": 7164,
    "behaves": 7165,
    "official": 7166,
    "Such": 7167,
    "forks": 7168,
    "fashionable": 7169,
    "physical": 7170,
    "fascinated": 7171,
    "conclusions": 7172,
    "protested": 7173,
    "spirits": 7174,
    "salesman": 7175,
    "device": 7176,
    "balance": 7177,
    "shouting": 7178,
    "praised": 7179,
    "objective": 7180,
    "digest": 7181,
    "decorated": 7182,
    "cheeks": 7183,
    "heavier": 7184,
    "Lightning": 7185,
    "launched": 7186,
    "Like": 7187,
    "gathering": 7188,
    "spider": 7189,
    "oblig": 7190,
    "activity": 7191,
    "Study": 7192,
    "Students": 7193,
    "biology": 7194,
    "Great": 7195,
    "Roll": 7196,
    "Contact": 7197,
    "stressful": 7198,
    "relatively": 7199,
    "spinach": 7200,
    "diplomat": 7201,
    "blackmailed": 7202,
    "elephant": 7203,
    "heartedly": 7204,
    "sympathy": 7205,
    "Drive": 7206,
    "pierced": 7207,
    "Olympics": 7208,
    "Elephants": 7209,
    "powers": 7210,
    "thrilled": 7211,
    "aspirin": 7212,
    "transport": 7213,
    "Shakespeare": 7214,
    "panting": 7215,
    "stinks": 7216,
    "slammed": 7217,
    "euros": 7218,
    "inosa": 7219,
    "inspired": 7220,
    "revenge": 7221,
    "Washington": 7222,
    "undant": 7223,
    "luxury": 7224,
    "watermelon": 7225,
    "orphan": 7226,
    "deepest": 7227,
    "chemistry": 7228,
    "dishonest": 7229,
    "Above": 7230,
    "August": 7231,
    "Girls": 7232,
    "July": 7233,
    "Tickets": 7234,
    "huddled": 7235,
    "nauseous": 7236,
    "scandal": 7237,
    "attentive": 7238,
    "enormous": 7239,
    "identity": 7240,
    "chocolates": 7241,
    "manipul": 7242,
    "paranoid": 7243,
    "volleyball": 7244,
    "announcement": 7245,
    "1st": 7246,
    "Apart": 7247,
    "Ber": 7248,
    "Ci": 7249,
    "Cla": 7250,
    "Catch": 7251,
    "Count": 7252,
    "Di": 7253,
    "Fur": 7254,
    "Gas": 7255,
    "II": 7256,
    "Ir": 7257,
    "King": 7258,
    "Langu": 7259,
    "Nago": 7260,
    "Out": 7261,
    "Oil": 7262,
    "Sear": 7263,
    "Sitting": 7264,
    "Ta": 7265,
    "Tit": 7266,
    "Teach": 7267,
    "Very": 7268,
    "aust": 7269,
    "awoke": 7270,
    "atomic": 7271,
    "bable": 7272,
    "cable": 7273,
    "dor": 7274,
    "fto": 7275,
    "fuse": 7276,
    "fla": 7277,
    "hj": 7278,
    "jar": 7279,
    "jet": 7280,
    "ko": 7281,
    "kite": 7282,
    "kanji": 7283,
    "liness": 7284,
    "lord": 7285,
    "mam": 7286,
    "mary": 7287,
    "mers": 7288,
    "nate": 7289,
    "nast": 7290,
    "oon": 7291,
    "oween": 7292,
    "overe": 7293,
    "py": 7294,
    "pry": 7295,
    "pork": 7296,
    "philosophy": 7297,
    "rad": 7298,
    "rage": 7299,
    "rats": 7300,
    "swo": 7301,
    "sist": 7302,
    "wh": 7303,
    "yage": 7304,
    "thr": 7305,
    "inci": 7306,
    "infect": 7307,
    "inappropriate": 7308,
    "inspir": 7309,
    "inconvenience": 7310,
    "infuri": 7311,
    "rebels": 7312,
    "toll": 7313,
    "anic": 7314,
    "attributed": 7315,
    "oning": 7316,
    "onted": 7317,
    "heel": 7318,
    "theft": 7319,
    "metic": 7320,
    "ingred": 7321,
    "llen": 7322,
    "orient": 7323,
    "sta": 7324,
    "stare": 7325,
    "stitution": 7326,
    "lets": 7327,
    "lefto": 7328,
    "hairsty": 7329,
    "dogh": 7330,
    "dope": 7331,
    "dozed": 7332,
    "dolph": 7333,
    "sealed": 7334,
    "seeds": 7335,
    "limp": 7336,
    "chase": 7337,
    "Health": 7338,
    "alle": 7339,
    "lover": 7340,
    "loop": 7341,
    "lovers": 7342,
    "loosen": 7343,
    "neu": 7344,
    "nephe": 7345,
    "tiring": 7346,
    "tigers": 7347,
    "rib": 7348,
    "rip": 7349,
    "nowadays": 7350,
    "soever": 7351,
    "cel": 7352,
    "outlive": 7353,
    "teous": 7354,
    "teles": 7355,
    "hike": 7356,
    "hiring": 7357,
    "abol": 7358,
    "unmarried": 7359,
    "unambitious": 7360,
    "unbuttoned": 7361,
    "coast": 7362,
    "cock": 7363,
    "sued": 7364,
    "tering": 7365,
    "odds": 7366,
    "pelled": 7367,
    "whatsoever": 7368,
    "agenda": 7369,
    "somewhat": 7370,
    "urban": 7371,
    "bore": 7372,
    "shor": 7373,
    "deer": 7374,
    "define": 7375,
    "depressing": 7376,
    "seek": 7377,
    "fronted": 7378,
    "potenti": 7379,
    "pleaded": 7380,
    "stored": 7381,
    "confronted": 7382,
    "compre": 7383,
    "earring": 7384,
    "pering": 7385,
    "period": 7386,
    "ilton": 7387,
    "mule": 7388,
    "speci": 7389,
    "homeless": 7390,
    "immig": 7391,
    "booked": 7392,
    "nights": 7393,
    "misses": 7394,
    "dipping": 7395,
    "forehead": 7396,
    "geo": 7397,
    "dispo": 7398,
    "dissatisfied": 7399,
    "belief": 7400,
    "ership": 7401,
    "penny": 7402,
    "assign": 7403,
    "overtime": 7404,
    "overcome": 7405,
    "handic": 7406,
    "waiter": 7407,
    "fier": 7408,
    "cian": 7409,
    "finicky": 7410,
    "eked": 7411,
    "doorbell": 7412,
    "merous": 7413,
    "beds": 7414,
    "remembers": 7415,
    "ankle": 7416,
    "medit": 7417,
    "raincoat": 7418,
    "parag": 7419,
    "server": 7420,
    "sentenced": 7421,
    "driven": 7422,
    "bites": 7423,
    "watering": 7424,
    "design": 7425,
    "ggle": 7426,
    "skating": 7427,
    "prime": 7428,
    "primary": 7429,
    "arrival": 7430,
    "invaded": 7431,
    "inviting": 7432,
    "topsy": 7433,
    "tripped": 7434,
    "meetings": 7435,
    "voyage": 7436,
    "Indust": 7437,
    "sham": 7438,
    "numerous": 7439,
    "label": 7440,
    "sincerely": 7441,
    "appointed": 7442,
    "allows": 7443,
    "allowance": 7444,
    "testify": 7445,
    "salty": 7446,
    "stressed": 7447,
    "observe": 7448,
    "obsessed": 7449,
    "differently": 7450,
    "catching": 7451,
    "sunlight": 7452,
    "sunshine": 7453,
    "internet": 7454,
    "courteous": 7455,
    "teams": 7456,
    "discussing": 7457,
    "reflect": 7458,
    "refuge": 7459,
    "suggestions": 7460,
    "worthwhile": 7461,
    "drunken": 7462,
    "moves": 7463,
    "rivers": 7464,
    "versary": 7465,
    "client": 7466,
    "umbus": 7467,
    "Remain": 7468,
    "flinch": 7469,
    "offering": 7470,
    "taxis": 7471,
    "entific": 7472,
    "extroverted": 7473,
    "scientific": 7474,
    "Union": 7475,
    "screwed": 7476,
    "popcorn": 7477,
    "temple": 7478,
    "temples": 7479,
    "cello": 7480,
    "cuff": 7481,
    "bury": 7482,
    "Too": 7483,
    "chap": 7484,
    "barbe": 7485,
    "memorized": 7486,
    "protected": 7487,
    "magn": 7488,
    "specialty": 7489,
    "dreds": 7490,
    "judgment": 7491,
    "gradually": 7492,
    "feeds": 7493,
    "stern": 7494,
    "burns": 7495,
    "wisely": 7496,
    "museums": 7497,
    "blinds": 7498,
    "believing": 7499,
    "sorts": 7500,
    "ashtray": 7501,
    "snake": 7502,
    "appeal": 7503,
    "solid": 7504,
    "peaceful": 7505,
    "exceptions": 7506,
    "thousands": 7507,
    "frightening": 7508,
    "connect": 7509,
    "spelled": 7510,
    "harmful": 7511,
    "economics": 7512,
    "audio": 7513,
    "description": 7514,
    "examples": 7515,
    "majors": 7516,
    "films": 7517,
    "dieting": 7518,
    "criminals": 7519,
    "swallowed": 7520,
    "instrument": 7521,
    "intentions": 7522,
    "intentionally": 7523,
    "suspicion": 7524,
    "adopt": 7525,
    "evident": 7526,
    "gentlemen": 7527,
    "programs": 7528,
    "strenuous": 7529,
    "consciousness": 7530,
    "declared": 7531,
    "Death": 7532,
    "Democr": 7533,
    "Speaking": 7534,
    "acquaint": 7535,
    "directly": 7536,
    "Coast": 7537,
    "kilograms": 7538,
    "Febru": 7539,
    "ignoring": 7540,
    "rers": 7541,
    "deceased": 7542,
    "detailed": 7543,
    "weighs": 7544,
    "scope": 7545,
    "outrank": 7546,
    "universal": 7547,
    "physically": 7548,
    "Consider": 7549,
    "advertising": 7550,
    "Apples": 7551,
    "barefoot": 7552,
    "pigs": 7553,
    "influential": 7554,
    "topics": 7555,
    "melting": 7556,
    "decorate": 7557,
    "financially": 7558,
    "stretch": 7559,
    "flooded": 7560,
    "accomplished": 7561,
    "witnessed": 7562,
    "bullets": 7563,
    "fussy": 7564,
    "sailor": 7565,
    "frustrating": 7566,
    "recovering": 7567,
    "activities": 7568,
    "calculated": 7569,
    "replaceable": 7570,
    "blankets": 7571,
    "poorer": 7572,
    "traditional": 7573,
    "Carry": 7574,
    "USA": 7575,
    "kara": 7576,
    "karate": 7577,
    "Walking": 7578,
    "mutual": 7579,
    "hospitalized": 7580,
    "cabinet": 7581,
    "palace": 7582,
    "chips": 7583,
    "adventure": 7584,
    "assertive": 7585,
    "sample": 7586,
    "candidate": 7587,
    "typist": 7588,
    "scape": 7589,
    "phrase": 7590,
    "exercising": 7591,
    "tunnel": 7592,
    "stalling": 7593,
    "stabbed": 7594,
    "athletic": 7595,
    "jewelry": 7596,
    "principles": 7597,
    "Halloween": 7598,
    "Hundreds": 7599,
    "Rabbits": 7600,
    "hacksaw": 7601,
    "applauded": 7602,
    "discovery": 7603,
    "disguised": 7604,
    "Columbus": 7605,
    "Fasten": 7606,
    "bakery": 7607,
    "fountain": 7608,
    "procedure": 7609,
    "sarcastic": 7610,
    "ATM": 7611,
    "Marriage": 7612,
    "Pacific": 7613,
    "isolated": 7614,
    "unbearable": 7615,
    "tragedy": 7616,
    "marathon": 7617,
    "normally": 7618,
    "suburbs": 7619,
    "eyebrows": 7620,
    "anniversary": 7621,
    "inosaurs": 7622,
    "Claus": 7623,
    "Nagoya": 7624,
    "Search": 7625,
    "Titanic": 7626,
    "hjong": 7627,
    "infected": 7628,
    "ingredient": 7629,
    "hairstyle": 7630,
    "doghouse": 7631,
    "nephew": 7632,
    "telescope": 7633,
    "potential": 7634,
    "comprehen": 7635,
    "flinching": 7636,
    "February": 7637,
    "%.": 7638,
    "28": 7639,
    "Back": 7640,
    "Cer": 7641,
    "Congratul": 7642,
    "Eth": 7643,
    "East": 7644,
    "Eating": 7645,
    "Fort": 7646,
    "Fire": 7647,
    "Gi": 7648,
    "Gold": 7649,
    "Hilton": 7650,
    "Ig": 7651,
    "Ice": 7652,
    "Learn": 7653,
    "Med": 7654,
    "Mor": 7655,
    "Making": 7656,
    "Milk": 7657,
    "Nag": 7658,
    "Nature": 7659,
    "Opp": 7660,
    "Pour": 7661,
    "Port": 7662,
    "Pull": 7663,
    "Ri": 7664,
    "Swe": 7665,
    "Sure": 7666,
    "Scient": 7667,
    "Tex": 7668,
    "Taking": 7669,
    "bble": 7670,
    "blog": 7671,
    "brace": 7672,
    "bartender": 7673,
    "cate": 7674,
    "ctic": 7675,
    "cue": 7676,
    "ctron": 7677,
    "dge": 7678,
    "ditch": 7679,
    "ev": 7680,
    "ethe": 7681,
    "eed": 7682,
    "fry": 7683,
    "fled": 7684,
    "jell": 7685,
    "ky": 7686,
    "lon": 7687,
    "lac": 7688,
    "lame": 7689,
    "mits": 7690,
    "mical": 7691,
    "msy": 7692,
    "pse": 7693,
    "pli": 7694,
    "pus": 7695,
    "pac": 7696,
    "pam": 7697,
    "pment": 7698,
    "passes": 7699,
    "rud": 7700,
    "raf": 7701,
    "rants": 7702,
    "rash": 7703,
    "scan": 7704,
    "sive": 7705,
    "sunk": 7706,
    "sized": 7707,
    "slower": 7708,
    "slavery": 7709,
    "tw": 7710,
    "tide": 7711,
    "twis": 7712,
    "tissue": 7713,
    "ument": 7714,
    "vul": 7715,
    "vised": 7716,
    "wages": 7717,
    "wanna": 7718,
    "xim": 7719,
    "zart": 7720,
    "thinner": 7721,
    "intr": 7722,
    "inate": 7723,
    "resis": 7724,
    "relied": 7725,
    "reaction": 7726,
    "regained": 7727,
    "toed": 7728,
    "anuts": 7729,
    "annel": 7730,
    "isure": 7731,
    "onds": 7732,
    "heli": 7733,
    "asso": 7734,
    "assuming": 7735,
    "encounter": 7736,
    "stack": 7737,
    "archa": 7738,
    "leisure": 7739,
    "nore": 7740,
    "iding": 7741,
    "lip": 7742,
    "liars": 7743,
    "lipstick": 7744,
    "hats": 7745,
    "chin": 7746,
    "chill": 7747,
    "forcing": 7748,
    "wives": 7749,
    "nest": 7750,
    "ria": 7751,
    "rily": 7752,
    "ripe": 7753,
    "ripped": 7754,
    "eteria": 7755,
    "esy": 7756,
    "adap": 7757,
    "rode": 7758,
    "ropho": 7759,
    "soil": 7760,
    "sober": 7761,
    "outfit": 7762,
    "hives": 7763,
    "absur": 7764,
    "abilities": 7765,
    "withdraw": 7766,
    "feared": 7767,
    "mob": 7768,
    "mow": 7769,
    "mometer": 7770,
    "acknowledge": 7771,
    "cowards": 7772,
    "sured": 7773,
    "suff": 7774,
    "thermometer": 7775,
    "peanuts": 7776,
    "irresponsible": 7777,
    "ironed": 7778,
    "trace": 7779,
    "tromb": 7780,
    "aine": 7781,
    "ami": 7782,
    "endings": 7783,
    "boats": 7784,
    "dear": 7785,
    "hydro": 7786,
    "excess": 7787,
    "expose": 7788,
    "ategy": 7789,
    "arded": 7790,
    "ques": 7791,
    "contribut": 7792,
    "contributed": 7793,
    "estimate": 7794,
    "angrily": 7795,
    "compo": 7796,
    "commission": 7797,
    "earrings": 7798,
    "aud": 7799,
    "autopsy": 7800,
    "prosper": 7801,
    "fax": 7802,
    "permitting": 7803,
    "blessed": 7804,
    "jored": 7805,
    "events": 7806,
    "makeup": 7807,
    "spouse": 7808,
    "mortal": 7809,
    "item": 7810,
    "udes": 7811,
    "thoughtful": 7812,
    "backs": 7813,
    "backyard": 7814,
    "misunderstand": 7815,
    "apparently": 7816,
    "fulfill": 7817,
    "buck": 7818,
    "drastic": 7819,
    "dime": 7820,
    "dile": 7821,
    "diag": 7822,
    "Wherever": 7823,
    "diseas": 7824,
    "dislikes": 7825,
    "dismissed": 7826,
    "disagreed": 7827,
    "displayed": 7828,
    "disobey": 7829,
    "discrimin": 7830,
    "distract": 7831,
    "whereabouts": 7832,
    "restrain": 7833,
    "assigned": 7834,
    "overdo": 7835,
    "overlook": 7836,
    "raising": 7837,
    "handles": 7838,
    "handbag": 7839,
    "handcuff": 7840,
    "hardworking": 7841,
    "broch": 7842,
    "greasy": 7843,
    "bride": 7844,
    "braces": 7845,
    "marked": 7846,
    "grump": 7847,
    "drinkable": 7848,
    "actual": 7849,
    "chemical": 7850,
    "torn": 7851,
    "hurricane": 7852,
    "kindly": 7853,
    "function": 7854,
    "funds": 7855,
    "mated": 7856,
    "matches": 7857,
    "stoned": 7858,
    "blouse": 7859,
    "blank": 7860,
    "blushed": 7861,
    "rainbow": 7862,
    "claust": 7863,
    "History": 7864,
    "interests": 7865,
    "intments": 7866,
    "beggar": 7867,
    "Englishman": 7868,
    "monkeys": 7869,
    "monument": 7870,
    "strategy": 7871,
    "runner": 7872,
    "dresser": 7873,
    "babies": 7874,
    "fasten": 7875,
    "inval": 7876,
    "tries": 7877,
    "trips": 7878,
    "headlights": 7879,
    "dug": 7880,
    "duck": 7881,
    "shiver": 7882,
    "accidentally": 7883,
    "voting": 7884,
    "Channel": 7885,
    "shaved": 7886,
    "Getting": 7887,
    "senior": 7888,
    "steam": 7889,
    "fireworks": 7890,
    "parks": 7891,
    "classmate": 7892,
    "cents": 7893,
    "freezes": 7894,
    "Looking": 7895,
    "attach": 7896,
    "attained": 7897,
    "appointments": 7898,
    "Going": 7899,
    "alization": 7900,
    "deciding": 7901,
    "feller": 7902,
    "tale": 7903,
    "tator": 7904,
    "summit": 7905,
    "throughout": 7906,
    "pattern": 7907,
    "curfew": 7908,
    "dictator": 7909,
    "riddle": 7910,
    "paperwork": 7911,
    "fails": 7912,
    "cript": 7913,
    "sweep": 7914,
    "sweethe": 7915,
    "recovery": 7916,
    "garlic": 7917,
    "Wasn": 7918,
    "vacations": 7919,
    "emphas": 7920,
    "block": 7921,
    "mahjong": 7922,
    "majored": 7923,
    "mainly": 7924,
    "flames": 7925,
    "replied": 7926,
    "satisfac": 7927,
    "satisfy": 7928,
    "Mozart": 7929,
    "freak": 7930,
    "cameras": 7931,
    "uneasy": 7932,
    "medication": 7933,
    "footprints": 7934,
    "dedic": 7935,
    "warmly": 7936,
    "faced": 7937,
    "recognition": 7938,
    "honestly": 7939,
    "umbrellas": 7940,
    "knit": 7941,
    "volcano": 7942,
    "uniforms": 7943,
    "lending": 7944,
    "weirdest": 7945,
    "sticks": 7946,
    "proposed": 7947,
    "figures": 7948,
    "memorize": 7949,
    "specialist": 7950,
    "Explain": 7951,
    "clumsy": 7952,
    "Pardon": 7953,
    "expand": 7954,
    "relieve": 7955,
    "possibilities": 7956,
    "eighty": 7957,
    "copter": 7958,
    "avoidable": 7959,
    "regul": 7960,
    "calmly": 7961,
    "explanations": 7962,
    "practical": 7963,
    "forgiveness": 7964,
    "survival": 7965,
    "peacefully": 7966,
    "subjects": 7967,
    "idiots": 7968,
    "articles": 7969,
    "annoys": 7970,
    "golden": 7971,
    "neyland": 7972,
    "Seeing": 7973,
    "slave": 7974,
    "whiskey": 7975,
    "whispering": 7976,
    "advantages": 7977,
    "harsh": 7978,
    "wounds": 7979,
    "pretends": 7980,
    "napkin": 7981,
    "chickens": 7982,
    "deluding": 7983,
    "heroin": 7984,
    "electrician": 7985,
    "fingernails": 7986,
    "browser": 7987,
    "Saying": 7988,
    "disgrace": 7989,
    "instruments": 7990,
    "pleasantly": 7991,
    "butterfly": 7992,
    "butterflies": 7993,
    "insulted": 7994,
    "expression": 7995,
    "resigned": 7996,
    "resignation": 7997,
    "slightest": 7998,
    "despised": 7999
}