{
    "<sos>": 0,
    "<eos>": 1,
    "<pad>": 2,
    "<s>": 3,
    "</s>": 4,
    "<unk>": 5,
    "<mask>": 6,
    "!": 7,
    "\"": 8,
    "$": 9,
    "%": 10,
    "&": 11,
    "'": 12,
    "(": 13,
    ")": 14,
    "+": 15,
    ",": 16,
    "-": 17,
    ".": 18,
    "/": 19,
    "0": 20,
    "1": 21,
    "2": 22,
    "3": 23,
    "4": 24,
    "5": 25,
    "6": 26,
    "7": 27,
    "8": 28,
    "9": 29,
    ":": 30,
    ";": 31,
    "?": 32,
    "A": 33,
    "B": 34,
    "C": 35,
    "D": 36,
    "E": 37,
    "F": 38,
    "G": 39,
    "H": 40,
    "I": 41,
    "J": 42,
    "K": 43,
    "L": 44,
    "M": 45,
    "N": 46,
    "O": 47,
    "P": 48,
    "Q": 49,
    "R": 50,
    "S": 51,
    "T": 52,
    "U": 53,
    "V": 54,
    "W": 55,
    "X": 56,
    "Y": 57,
    "Z": 58,
    "a": 59,
    "b": 60,
    "c": 61,
    "d": 62,
    "e": 63,
    "f": 64,
    "g": 65,
    "h": 66,
    "i": 67,
    "j": 68,
    "k": 69,
    "l": 70,
    "m": 71,
    "n": 72,
    "o": 73,
    "p": 74,
    "q": 75,
    "r": 76,
    "s": 77,
    "t": 78,
    "u": 79,
    "v": 80,
    "w": 81,
    "x": 82,
    "y": 83,
    "z": 84,
    "«": 85,
    "»": 86,
    "À": 87,
    "Â": 88,
    "Ç": 89,
    "É": 90,
    "Ê": 91,
    "Ô": 92,
    "à": 93,
    "á": 94,
    "â": 95,
    "ç": 96,
    "è": 97,
    "é": 98,
    "ê": 99,
    "ë": 100,
    "î": 101,
    "ï": 102,
    "ô": 103,
    "ö": 104,
    "ù": 105,
    "û": 106,
    "œ": 107,
    "С": 108,
    "​": 109,
    "–": 110,
    "‘": 111,
    "’": 112,
    "…": 113,
    "‽": 114,
    "₂": 115,
    "ai": 116,
    "ou": 117,
    "es": 118,
    "en": 119,
    "re": 120,
    "on": 121,
    "le": 122,
    "qu": 123,
    "de": 124,
    "pa": 125,
    "er": 126,
    "ous": 127,
    "ne": 128,
    "an": 129,
    "oi": 130,
    "que": 131,
    "Je": 132,
    "ent": 133,
    "om": 134,
    "te": 135,
    "pas": 136,
    "ais": 137,
    "est": 138,
    "eu": 139,
    "is": 140,
    "ce": 141,
    "la": 142,
    "au": 143,
    "se": 144,
    "ch": 145,
    "vous": 146,
    "av": 147,
    "our": 148,
    "il": 149,
    "pr": 150,
    "tu": 151,
    "me": 152,
    "ait": 153,
    "tr": 154,
    "Il": 155,
    "ar": 156,
    "un": 157,
    "su": 158,
    "lle": 159,
    "Tom": 160,
    "ti": 161,
    "or": 162,
    "ment": 163,
    "in": 164,
    "tre": 165,
    "ez": 166,
    "it": 167,
    "les": 168,
    "par": 169,
    "lu": 170,
    "ét": 171,
    "ri": 172,
    "ons": 173,
    "eux": 174,
    "si": 175,
    "ant": 176,
    "je": 177,
    "ci": 178,
    "une": 179,
    "end": 180,
    "dé": 181,
    "as": 182,
    "pour": 183,
    "son": 184,
    "di": 185,
    "aire": 186,
    "ouv": 187,
    "con": 188,
    "am": 189,
    "li": 190,
    "tes": 191,
    "suis": 192,
    "ans": 193,
    "oir": 194,
    "du": 195,
    "mp": 196,
    "tou": 197,
    "com": 198,
    "ain": 199,
    "faire": 200,
    "ap": 201,
    "ère": 202,
    "al": 203,
    "et": 204,
    "ée": 205,
    "vi": 206,
    "ois": 207,
    "Nous": 208,
    "os": 209,
    "Qu": 210,
    "nous": 211,
    "des": 212,
    "ré": 213,
    "ens": 214,
    "ag": 215,
    "plu": 216,
    "ur": 217,
    "Tu": 218,
    "Elle": 219,
    "mon": 220,
    "Vous": 221,
    "moi": 222,
    "dans": 223,
    "bi": 224,
    "res": 225,
    "man": 226,
    "us": 227,
    "mes": 228,
    "pro": 229,
    "plus": 230,
    "at": 231,
    "fait": 232,
    "ec": 233,
    "ès": 234,
    "lé": 235,
    "jour": 236,
    "qui": 237,
    "veux": 238,
    "être": 239,
    "vo": 240,
    "ble": 241,
    "té": 242,
    "ça": 243,
    "ir": 244,
    "elle": 245,
    "ter": 246,
    "sa": 247,
    "ser": 248,
    "vr": 249,
    "était": 250,
    "quoi": 251,
    "co": 252,
    "ille": 253,
    "ma": 254,
    "avec": 255,
    "quel": 256,
    "peu": 257,
    "eau": 258,
    "ense": 259,
    "ac": 260,
    "sur": 261,
    "cou": 262,
    "der": 263,
    "temp": 264,
    "Ce": 265,
    "per": 266,
    "ie": 267,
    "pe": 268,
    "ont": 269,
    "tout": 270,
    "ici": 271,
    "tion": 272,
    "temps": 273,
    "bien": 274,
    "êtes": 275,
    "Le": 276,
    "sont": 277,
    "cu": 278,
    "mi": 279,
    "endre": 280,
    "che": 281,
    "ose": 282,
    "dit": 283,
    "oin": 284,
    "lui": 285,
    "ff": 286,
    "ran": 287,
    "mais": 288,
    "sé": 289,
    "été": 290,
    "tte": 291,
    "pré": 292,
    "cr": 293,
    "el": 294,
    "très": 295,
    "vou": 296,
    "lais": 297,
    "rais": 298,
    "heu": 299,
    "ux": 300,
    "toi": 301,
    "avez": 302,
    "ge": 303,
    "ta": 304,
    "ex": 305,
    "pense": 306,
    "dev": 307,
    "Pour": 308,
    "vrai": 309,
    "Com": 310,
    "por": 311,
    "ton": 312,
    "Ne": 313,
    "main": 314,
    "pu": 315,
    "La": 316,
    "ier": 317,
    "ve": 318,
    "dis": 319,
    "avoir": 320,
    "votre": 321,
    "trav": 322,
    "mer": 323,
    "ver": 324,
    "ner": 325,
    "ler": 326,
    "mé": 327,
    "peux": 328,
    "ra": 329,
    "sais": 330,
    "né": 331,
    "vé": 332,
    "chose": 333,
    "oit": 334,
    "bon": 335,
    "Les": 336,
    "jam": 337,
    "ion": 338,
    "Es": 339,
    "ller": 340,
    "cette": 341,
    "ten": 342,
    "Mar": 343,
    "aut": 344,
    "arri": 345,
    "coup": 346,
    "jamais": 347,
    "ven": 348,
    "gar": 349,
    "travai": 350,
    "seu": 351,
    "Ils": 352,
    "gu": 353,
    "pos": 354,
    "pens": 355,
    "op": 356,
    "dire": 357,
    "ca": 358,
    "nu": 359,
    "ité": 360,
    "vraiment": 361,
    "avons": 362,
    "ot": 363,
    "ture": 364,
    "cela": 365,
    "age": 366,
    "so": 367,
    "Pourquoi": 368,
    "pouv": 369,
    "jours": 370,
    "ger": 371,
    "pris": 372,
    "gent": 373,
    "beau": 374,
    "ommes": 375,
    "ort": 376,
    "mar": 377,
    "heure": 378,
    "cher": 379,
    "bes": 380,
    "aime": 381,
    "là": 382,
    "aller": 383,
    "quelque": 384,
    "ête": 385,
    "voir": 386,
    "ni": 387,
    "trouv": 388,
    "vais": 389,
    "don": 390,
    "besoin": 391,
    "rer": 392,
    "parti": 393,
    "ces": 394,
    "ses": 395,
    "sonne": 396,
    "bre": 397,
    "gé": 398,
    "lè": 399,
    "va": 400,
    "vre": 401,
    "sez": 402,
    "oc": 403,
    "sem": 404,
    "pé": 405,
    "beaucoup": 406,
    "deman": 407,
    "ut": 408,
    "vu": 409,
    "sent": 410,
    "lement": 411,
    "jus": 412,
    "tous": 413,
    "sommes": 414,
    "pi": 415,
    "voi": 416,
    "chan": 417,
    "lles": 418,
    "ors": 419,
    "att": 420,
    "père": 421,
    "hu": 422,
    "im": 423,
    "Comment": 424,
    "parler": 425,
    "fer": 426,
    "prendre": 427,
    "avait": 428,
    "ils": 429,
    "pla": 430,
    "avais": 431,
    "cour": 432,
    "rien": 433,
    "train": 434,
    "rent": 435,
    "étais": 436,
    "ren": 437,
    "gn": 438,
    "ême": 439,
    "Ça": 440,
    "Mary": 441,
    "peut": 442,
    "aux": 443,
    "Est": 444,
    "and": 445,
    "déj": 446,
    "avant": 447,
    "aus": 448,
    "maison": 449,
    "leur": 450,
    "vie": 451,
    "enf": 452,
    "out": 453,
    "trop": 454,
    "sou": 455,
    "em": 456,
    "toujours": 457,
    "prob": 458,
    "eur": 459,
    "fi": 460,
    "deux": 461,
    "min": 462,
    "travail": 463,
    "argent": 464,
    "nouv": 465,
    "fa": 466,
    "fr": 467,
    "ph": 468,
    "fois": 469,
    "core": 470,
    "comme": 471,
    "près": 472,
    "même": 473,
    "gran": 474,
    "encore": 475,
    "oy": 476,
    "bli": 477,
    "aimer": 478,
    "ard": 479,
    "conn": 480,
    "monde": 481,
    "Quel": 482,
    "cer": 483,
    "puis": 484,
    "On": 485,
    "ants": 486,
    "men": 487,
    "ab": 488,
    "aient": 489,
    "ends": 490,
    "pl": 491,
    "air": 492,
    "ad": 493,
    "dre": 494,
    "jou": 495,
    "soit": 496,
    "fais": 497,
    "quelqu": 498,
    "po": 499,
    "ret": 500,
    "porte": 501,
    "rest": 502,
    "br": 503,
    "ôt": 504,
    "Mon": 505,
    "aine": 506,
    "autre": 507,
    "faut": 508,
    "chi": 509,
    "voiture": 510,
    "Elles": 511,
    "endu": 512,
    "mis": 513,
    "lez": 514,
    "sor": 515,
    "dent": 516,
    "lon": 517,
    "gr": 518,
    "vis": 519,
    "où": 520,
    "devr": 521,
    "chez": 522,
    "dois": 523,
    "riez": 524,
    "imp": 525,
    "aimerais": 526,
    "Tout": 527,
    "aider": 528,
    "nom": 529,
    "vez": 530,
    "tenant": 531,
    "tement": 532,
    "ach": 533,
    "diff": 534,
    "otre": 535,
    "Où": 536,
    "rê": 537,
    "aussi": 538,
    "mal": 539,
    "Que": 540,
    "omme": 541,
    "ette": 542,
    "for": 543,
    "rait": 544,
    "hui": 545,
    "peti": 546,
    "say": 547,
    "fin": 548,
    "cor": 549,
    "sû": 550,
    "able": 551,
    "fran": 552,
    "née": 553,
    "jourd": 554,
    "tent": 555,
    "sion": 556,
    "çais": 557,
    "veu": 558,
    "ît": 559,
    "Si": 560,
    "problè": 561,
    "ceci": 562,
    "iez": 563,
    "teur": 564,
    "ance": 565,
    "juste": 566,
    "és": 567,
    "français": 568,
    "maintenant": 569,
    "Qui": 570,
    "étu": 571,
    "oire": 572,
    "As": 573,
    "lait": 574,
    "hier": 575,
    "achet": 576,
    "aujourd": 577,
    "comp": 578,
    "pres": 579,
    "occu": 580,
    "connais": 581,
    "ore": 582,
    "personne": 583,
    "elles": 584,
    "rap": 585,
    "assez": 586,
    "essay": 587,
    "part": 588,
    "cri": 589,
    "arrive": 590,
    "télé": 591,
    "ign": 592,
    "livre": 593,
    "déjà": 594,
    "cé": 595,
    "ttre": 596,
    "seul": 597,
    "use": 598,
    "venu": 599,
    "étudi": 600,
    "pensais": 601,
    "idé": 602,
    "pre": 603,
    "nes": 604,
    "fé": 605,
    "ple": 606,
    "ins": 607,
    "souv": 608,
    "bou": 609,
    "Avez": 610,
    "contr": 611,
    "emp": 612,
    "ob": 613,
    "regar": 614,
    "pon": 615,
    "éco": 616,
    "uis": 617,
    "commen": 618,
    "ation": 619,
    "lo": 620,
    "mieux": 621,
    "ang": 622,
    "soir": 623,
    "voy": 624,
    "Êtes": 625,
    "bonne": 626,
    "simp": 627,
    "ante": 628,
    "ure": 629,
    "ami": 630,
    "venir": 631,
    "école": 632,
    "après": 633,
    "ha": 634,
    "entre": 635,
    "tôt": 636,
    "toutes": 637,
    "ine": 638,
    "rai": 639,
    "problème": 640,
    "Per": 641,
    "demain": 642,
    "manger": 643,
    "ions": 644,
    "bles": 645,
    "trois": 646,
    "plaît": 647,
    "quand": 648,
    "Combien": 649,
    "sait": 650,
    "cons": 651,
    "sans": 652,
    "quest": 653,
    "mati": 654,
    "Cette": 655,
    "dû": 656,
    "enfants": 657,
    "devrais": 658,
    "ts": 659,
    "Personne": 660,
    "De": 661,
    "dét": 662,
    "gens": 663,
    "grand": 664,
    "Un": 665,
    "ire": 666,
    "savoir": 667,
    "tres": 668,
    "pay": 669,
    "heures": 670,
    "homme": 671,
    "ence": 672,
    "sup": 673,
    "inté": 674,
    "lons": 675,
    "fut": 676,
    "arrê": 677,
    "Ma": 678,
    "ents": 679,
    "semble": 680,
    "mom": 681,
    "Marie": 682,
    "vent": 683,
    "mère": 684,
    "préci": 685,
    "sens": 686,
    "tions": 687,
    "toute": 688,
    "oses": 689,
    "nuit": 690,
    "ction": 691,
    "auc": 692,
    "cin": 693,
    "rou": 694,
    "chien": 695,
    "moment": 696,
    "simplement": 697,
    "erre": 698,
    "sorti": 699,
    "passé": 700,
    "partir": 701,
    "appe": 702,
    "Cela": 703,
    "long": 704,
    "habi": 705,
    "lée": 706,
    "rez": 707,
    "répon": 708,
    "aurais": 709,
    "asse": 710,
    "nouveau": 711,
    "aide": 712,
    "tez": 713,
    "bé": 714,
    "quelle": 715,
    "jeu": 716,
    "ga": 717,
    "derni": 718,
    "œur": 719,
    "En": 720,
    "sûr": 721,
    "Puis": 722,
    "ass": 723,
    "oubli": 724,
    "ager": 725,
    "notre": 726,
    "pri": 727,
    "choses": 728,
    "heureux": 729,
    "cham": 730,
    "idée": 731,
    "pend": 732,
    "pouvez": 733,
    "yez": 734,
    "comment": 735,
    "quelques": 736,
    "vers": 737,
    "moin": 738,
    "enne": 739,
    "ché": 740,
    "voulais": 741,
    "veut": 742,
    "fem": 743,
    "jet": 744,
    "dernière": 745,
    "dez": 746,
    "qué": 747,
    "pose": 748,
    "lors": 749,
    "pourquoi": 750,
    "vos": 751,
    "oston": 752,
    "Boston": 753,
    "rester": 754,
    "allé": 755,
    "teau": 756,
    "appréci": 757,
    "dou": 758,
    "tra": 759,
    "petit": 760,
    "lent": 761,
    "ouver": 762,
    "entendu": 763,
    "fai": 764,
    "vit": 765,
    "contre": 766,
    "sant": 767,
    "cha": 768,
    "sui": 769,
    "déso": 770,
    "trouver": 771,
    "tom": 772,
    "raison": 773,
    "gne": 774,
    "lan": 775,
    "prom": 776,
    "fon": 777,
    "fil": 778,
    "prê": 779,
    "table": 780,
    "da": 781,
    "non": 782,
    "car": 783,
    "espère": 784,
    "croire": 785,
    "amis": 786,
    "iste": 787,
    "Quand": 788,
    "rendre": 789,
    "icile": 790,
    "cert": 791,
    "mau": 792,
    "tant": 793,
    "na": 794,
    "çon": 795,
    "intéres": 796,
    "peur": 797,
    "prends": 798,
    "ord": 799,
    "condu": 800,
    "mauvais": 801,
    "voulez": 802,
    "ue": 803,
    "parle": 804,
    "demandé": 805,
    "èrent": 806,
    "déjeu": 807,
    "meille": 808,
    "port": 809,
    "donner": 810,
    "cet": 811,
    "col": 812,
    "Quelle": 813,
    "proch": 814,
    "fille": 815,
    "mari": 816,
    "difficile": 817,
    "apon": 818,
    "premi": 819,
    "déc": 820,
    "arrivé": 821,
    "Lais": 822,
    "lit": 823,
    "conse": 824,
    "viens": 825,
    "gue": 826,
    "habitu": 827,
    "piè": 828,
    "phon": 829,
    "matin": 830,
    "pendant": 831,
    "fu": 832,
    "semaine": 833,
    "dr": 834,
    "ques": 835,
    "seule": 836,
    "Vou": 837,
    "pli": 838,
    "telle": 839,
    "fati": 840,
    "tran": 841,
    "hé": 842,
    "prend": 843,
    "chambre": 844,
    "poin": 845,
    "sera": 846,
    "poli": 847,
    "anglais": 848,
    "fatigu": 849,
    "tel": 850,
    "ba": 851,
    "prie": 852,
    "téléphon": 853,
    "este": 854,
    "pelle": 855,
    "parents": 856,
    "dor": 857,
    "ées": 858,
    "phot": 859,
    "souvent": 860,
    "donné": 861,
    "depuis": 862,
    "fort": 863,
    "onne": 864,
    "rions": 865,
    "femme": 866,
    "occupé": 867,
    "minu": 868,
    "gag": 869,
    "accor": 870,
    "écri": 871,
    "perdu": 872,
    "mu": 873,
    "mettre": 874,
    "mot": 875,
    "vois": 876,
    "savais": 877,
    "rencontr": 878,
    "question": 879,
    "tiez": 880,
    "vér": 881,
    "sau": 882,
    "ol": 883,
    "mort": 884,
    "vin": 885,
    "crois": 886,
    "jusqu": 887,
    "cus": 888,
    "quer": 889,
    "nombre": 890,
    "déjeuner": 891,
    "gros": 892,
    "produ": 893,
    "passe": 894,
    "oid": 895,
    "étaient": 896,
    "illé": 897,
    "dur": 898,
    "ments": 899,
    "sœur": 900,
    "eff": 901,
    "longtemps": 902,
    "Pouv": 903,
    "fête": 904,
    "ise": 905,
    "lire": 906,
    "écou": 907,
    "trouvé": 908,
    "acheter": 909,
    "moins": 910,
    "Re": 911,
    "fam": 912,
    "tard": 913,
    "vres": 914,
    "his": 915,
    "retard": 916,
    "montre": 917,
    "ville": 918,
    "présent": 919,
    "erreur": 920,
    "aires": 921,
    "euse": 922,
    "mala": 923,
    "aie": 924,
    "chant": 925,
    "mo": 926,
    "rend": 927,
    "attend": 928,
    "jouer": 929,
    "chat": 930,
    "sible": 931,
    "import": 932,
    "pleu": 933,
    "pièce": 934,
    "pouvons": 935,
    "lar": 936,
    "pourrait": 937,
    "deven": 938,
    "acheté": 939,
    "ro": 940,
    "illez": 941,
    "leurs": 942,
    "mir": 943,
    "orte": 944,
    "ères": 945,
    "tri": 946,
    "mag": 947,
    "voud": 948,
    "pensé": 949,
    "cla": 950,
    "nier": 951,
    "Une": 952,
    "ière": 953,
    "ras": 954,
    "Par": 955,
    "sois": 956,
    "llez": 957,
    "tique": 958,
    "déci": 959,
    "avantage": 960,
    "Ai": 961,
    "util": 962,
    "dont": 963,
    "sujet": 964,
    "demande": 965,
    "loi": 966,
    "accord": 967,
    "feu": 968,
    "travailler": 969,
    "attent": 970,
    "vient": 971,
    "faci": 972,
    "bu": 973,
    "chau": 974,
    "prof": 975,
    "enfant": 976,
    "viend": 977,
    "adore": 978,
    "frère": 979,
    "nour": 980,
    "rée": 981,
    "ches": 982,
    "autres": 983,
    "doit": 984,
    "faites": 985,
    "passer": 986,
    "illes": 987,
    "café": 988,
    "nouvelle": 989,
    "sortir": 990,
    "téléphone": 991,
    "Au": 992,
    "uit": 993,
    "cle": 994,
    "vérité": 995,
    "Son": 996,
    "écr": 997,
    "sus": 998,
    "devons": 999,
    "trouve": 1000,
    "presque": 1001,
    "point": 1002,
    "choi": 1003,
    "tenir": 1004,
    "davantage": 1005,
    "arriver": 1006,
    "cident": 1007,
    "tomb": 1008,
    "grande": 1009,
    "soyez": 1010,
    "meilleur": 1011,
    "médi": 1012,
    "lettre": 1013,
    "journée": 1014,
    "uni": 1015,
    "éch": 1016,
    "devriez": 1017,
    "cep": 1018,
    "cours": 1019,
    "toire": 1020,
    "retour": 1021,
    "Pouvez": 1022,
    "fier": 1023,
    "iser": 1024,
    "pren": 1025,
    "surpris": 1026,
    "diffé": 1027,
    "bus": 1028,
    "mble": 1029,
    "rête": 1030,
    "isé": 1031,
    "heureuse": 1032,
    "Ar": 1033,
    "entendre": 1034,
    "attendre": 1035,
    "étran": 1036,
    "fus": 1037,
    "hô": 1038,
    "photo": 1039,
    "famille": 1040,
    "aff": 1041,
    "bure": 1042,
    "content": 1043,
    "essayer": 1044,
    "Peux": 1045,
    "erci": 1046,
    "rir": 1047,
    "hors": 1048,
    "accident": 1049,
    "bureau": 1050,
    "yeux": 1051,
    "net": 1052,
    "ignore": 1053,
    "tellement": 1054,
    "cent": 1055,
    "nager": 1056,
    "pous": 1057,
    "étiez": 1058,
    "livres": 1059,
    "jeune": 1060,
    "ty": 1061,
    "resp": 1062,
    "devoir": 1063,
    "porter": 1064,
    "amus": 1065,
    "petite": 1066,
    "ers": 1067,
    "termin": 1068,
    "fini": 1069,
    "bas": 1070,
    "quit": 1071,
    "eut": 1072,
    "voulait": 1073,
    "probable": 1074,
    "combien": 1075,
    "cas": 1076,
    "tour": 1077,
    "bat": 1078,
    "dix": 1079,
    "cuis": 1080,
    "désolé": 1081,
    "conque": 1082,
    "aucune": 1083,
    "histoire": 1084,
    "sous": 1085,
    "vue": 1086,
    "bras": 1087,
    "pati": 1088,
    "lie": 1089,
    "ite": 1090,
    "rom": 1091,
    "serai": 1092,
    "reux": 1093,
    "person": 1094,
    "devez": 1095,
    "aucun": 1096,
    "demander": 1097,
    "chance": 1098,
    "arrêter": 1099,
    "film": 1100,
    "can": 1101,
    "ves": 1102,
    "Dis": 1103,
    "iens": 1104,
    "endr": 1105,
    "serait": 1106,
    "sée": 1107,
    "partie": 1108,
    "année": 1109,
    "confi": 1110,
    "expli": 1111,
    "Veu": 1112,
    "Veuillez": 1113,
    "qua": 1114,
    "pru": 1115,
    "vite": 1116,
    "assis": 1117,
    "dan": 1118,
    "pouvoir": 1119,
    "tête": 1120,
    "préfé": 1121,
    "aille": 1122,
    "Japon": 1123,
    "go": 1124,
    "lot": 1125,
    "exac": 1126,
    "profes": 1127,
    "Sa": 1128,
    "bar": 1129,
    "ide": 1130,
    "vivre": 1131,
    "cô": 1132,
    "chaque": 1133,
    "sûre": 1134,
    "vieux": 1135,
    "méde": 1136,
    "poser": 1137,
    "mangé": 1138,
    "nourri": 1139,
    "réun": 1140,
    "dernier": 1141,
    "dî": 1142,
    "fils": 1143,
    "écrire": 1144,
    "endroit": 1145,
    "Veux": 1146,
    "vas": 1147,
    "ente": 1148,
    "devrait": 1149,
    "gen": 1150,
    "travaille": 1151,
    "cl": 1152,
    "pie": 1153,
    "personnes": 1154,
    "clé": 1155,
    "tinu": 1156,
    "lorsque": 1157,
    "malade": 1158,
    "senti": 1159,
    "prêt": 1160,
    "colère": 1161,
    "voudrais": 1162,
    "sique": 1163,
    "Merci": 1164,
    "apprendre": 1165,
    "ensemble": 1166,
    "midi": 1167,
    "laissé": 1168,
    "discu": 1169,
    "seur": 1170,
    "cur": 1171,
    "capa": 1172,
    "Voulez": 1173,
    "off": 1174,
    "pée": 1175,
    "rant": 1176,
    "vain": 1177,
    "Donne": 1178,
    "comprends": 1179,
    "ferais": 1180,
    "écrit": 1181,
    "Fais": 1182,
    "hi": 1183,
    "hon": 1184,
    "trap": 1185,
    "garçon": 1186,
    "facile": 1187,
    "sour": 1188,
    "thé": 1189,
    "envie": 1190,
    "froid": 1191,
    "Arrête": 1192,
    "réunion": 1193,
    "Ces": 1194,
    "cau": 1195,
    "pare": 1196,
    "comprendre": 1197,
    "déteste": 1198,
    "amie": 1199,
    "serais": 1200,
    "devrions": 1201,
    "çu": 1202,
    "gare": 1203,
    "boire": 1204,
    "plais": 1205,
    "âge": 1206,
    "importe": 1207,
    "fatigué": 1208,
    "manière": 1209,
    "penser": 1210,
    "nourriture": 1211,
    "tru": 1212,
    "ites": 1213,
    "seulement": 1214,
    "semb": 1215,
    "rencontre": 1216,
    "pression": 1217,
    "apprécie": 1218,
    "ains": 1219,
    "ussi": 1220,
    "questions": 1221,
    "pourrais": 1222,
    "plan": 1223,
    "mois": 1224,
    "oyez": 1225,
    "conduire": 1226,
    "côté": 1227,
    "souh": 1228,
    "prudent": 1229,
    "fen": 1230,
    "chemin": 1231,
    "belle": 1232,
    "place": 1233,
    "conna": 1234,
    "entôt": 1235,
    "int": 1236,
    "regarder": 1237,
    "réponse": 1238,
    "imag": 1239,
    "fau": 1240,
    "gi": 1241,
    "uses": 1242,
    "propos": 1243,
    "autant": 1244,
    "souci": 1245,
    "eurs": 1246,
    "ina": 1247,
    "Quelqu": 1248,
    "ennu": 1249,
    "Dé": 1250,
    "val": 1251,
    "attrap": 1252,
    "confiance": 1253,
    "aise": 1254,
    "compte": 1255,
    "rapide": 1256,
    "pays": 1257,
    "premier": 1258,
    "attention": 1259,
    "bal": 1260,
    "prit": 1261,
    "suc": 1262,
    "ats": 1263,
    "fou": 1264,
    "lis": 1265,
    "ainsi": 1266,
    "pit": 1267,
    "amen": 1268,
    "oublié": 1269,
    "reste": 1270,
    "Laisse": 1271,
    "laisser": 1272,
    "ju": 1273,
    "mour": 1274,
    "suff": 1275,
    "parlé": 1276,
    "bientôt": 1277,
    "exactement": 1278,
    "professeur": 1279,
    "coû": 1280,
    "vélo": 1281,
    "celui": 1282,
    "séri": 1283,
    "ris": 1284,
    "pied": 1285,
    "mor": 1286,
    "médecin": 1287,
    "ale": 1288,
    "journ": 1289,
    "suppose": 1290,
    "minutes": 1291,
    "réussi": 1292,
    "voyage": 1293,
    "dormir": 1294,
    "be": 1295,
    "nos": 1296,
    "cam": 1297,
    "boulot": 1298,
    "pê": 1299,
    "ban": 1300,
    "ien": 1301,
    "uf": 1302,
    "lieu": 1303,
    "ets": 1304,
    "essayé": 1305,
    "loin": 1306,
    "plait": 1307,
    "étudier": 1308,
    "bois": 1309,
    "sec": 1310,
    "chaus": 1311,
    "dîner": 1312,
    "let": 1313,
    "prix": 1314,
    "gâ": 1315,
    "possible": 1316,
    "police": 1317,
    "musique": 1318,
    "alors": 1319,
    "accep": 1320,
    "excus": 1321,
    "conseil": 1322,
    "amment": 1323,
    "penses": 1324,
    "blessé": 1325,
    "cal": 1326,
    "continu": 1327,
    "Tous": 1328,
    "iner": 1329,
    "Mes": 1330,
    "pouvais": 1331,
    "bo": 1332,
    "ète": 1333,
    "tif": 1334,
    "verre": 1335,
    "posé": 1336,
    "impression": 1337,
    "Ch": 1338,
    "atis": 1339,
    "servi": 1340,
    "Peut": 1341,
    "mange": 1342,
    "cheveux": 1343,
    "vité": 1344,
    "inqui": 1345,
    "dessus": 1346,
    "probablement": 1347,
    "équi": 1348,
    "aurait": 1349,
    "allons": 1350,
    "cul": 1351,
    "différent": 1352,
    "ess": 1353,
    "rons": 1354,
    "allu": 1355,
    "Regar": 1356,
    "pier": 1357,
    "inter": 1358,
    "décidé": 1359,
    "af": 1360,
    "plutôt": 1361,
    "veille": 1362,
    "rends": 1363,
    "ème": 1364,
    "genre": 1365,
    "déran": 1366,
    "posi": 1367,
    "tention": 1368,
    "clas": 1369,
    "ances": 1370,
    "puisse": 1371,
    "emploi": 1372,
    "payer": 1373,
    "ouvert": 1374,
    "prochaine": 1375,
    "important": 1376,
    "ages": 1377,
    "faim": 1378,
    "affaire": 1379,
    "dehors": 1380,
    "parer": 1381,
    "Laissez": 1382,
    "appelle": 1383,
    "première": 1384,
    "fenêtre": 1385,
    "fonction": 1386,
    "chanter": 1387,
    "obli": 1388,
    "éle": 1389,
    "paravant": 1390,
    "comman": 1391,
    "appris": 1392,
    "sac": 1393,
    "mée": 1394,
    "produit": 1395,
    "Ap": 1396,
    "allez": 1397,
    "rob": 1398,
    "auparavant": 1399,
    "réf": 1400,
    "voul": 1401,
    "curité": 1402,
    "ert": 1403,
    "mat": 1404,
    "nei": 1405,
    "joue": 1406,
    "sy": 1407,
    "soi": 1408,
    "agit": 1409,
    "chaud": 1410,
    "bres": 1411,
    "mil": 1412,
    "étions": 1413,
    "aite": 1414,
    "dites": 1415,
    "mains": 1416,
    "néces": 1417,
    "immédi": 1418,
    "venue": 1419,
    "ru": 1420,
    "Votre": 1421,
    "ellement": 1422,
    "nées": 1423,
    "nent": 1424,
    "méri": 1425,
    "titu": 1426,
    "sig": 1427,
    "habitude": 1428,
    "Ét": 1429,
    "situ": 1430,
    "peuvent": 1431,
    "étranger": 1432,
    "devoirs": 1433,
    "rencontrer": 1434,
    "no": 1435,
    "char": 1436,
    "changer": 1437,
    "ceux": 1438,
    "ail": 1439,
    "intention": 1440,
    "solu": 1441,
    "ges": 1442,
    "pau": 1443,
    "met": 1444,
    "Pourriez": 1445,
    "merci": 1446,
    "marcher": 1447,
    "donne": 1448,
    "nécess": 1449,
    "immédia": 1450,
    "Con": 1451,
    "infor": 1452,
    "cade": 1453,
    "sol": 1454,
    "prochain": 1455,
    "suffis": 1456,
    "meur": 1457,
    "satis": 1458,
    "appeler": 1459,
    "stu": 1460,
    "Pourrais": 1461,
    "nouvelles": 1462,
    "cinq": 1463,
    "désolée": 1464,
    "secret": 1465,
    "rieur": 1466,
    "vol": 1467,
    "pouvait": 1468,
    "visite": 1469,
    "ignor": 1470,
    "çons": 1471,
    "sures": 1472,
    "convain": 1473,
    "terre": 1474,
    "chercher": 1475,
    "choix": 1476,
    "immédiatement": 1477,
    "rè": 1478,
    "ron": 1479,
    "aites": 1480,
    "rencontré": 1481,
    "journal": 1482,
    "somme": 1483,
    "sécurité": 1484,
    "mission": 1485,
    "télévis": 1486,
    "pensez": 1487,
    "autor": 1488,
    "rappe": 1489,
    "commence": 1490,
    "utiliser": 1491,
    "discuter": 1492,
    "Notre": 1493,
    "hab": 1494,
    "problèmes": 1495,
    "commencé": 1496,
    "nis": 1497,
    "pou": 1498,
    "ordina": 1499,
    "ordinateur": 1500,
    "appar": 1501,
    "préf": 1502,
    "occupée": 1503,
    "lou": 1504,
    "mière": 1505,
    "suite": 1506,
    "rendu": 1507,
    "vac": 1508,
    "ître": 1509,
    "prison": 1510,
    "ôle": 1511,
    "peine": 1512,
    "mise": 1513,
    "Voud": 1514,
    "magas": 1515,
    "vont": 1516,
    "envoy": 1517,
    "sul": 1518,
    "connu": 1519,
    "compa": 1520,
    "allait": 1521,
    "terminé": 1522,
    "capable": 1523,
    "cs": 1524,
    "japon": 1525,
    "we": 1526,
    "oyer": 1527,
    "arrêté": 1528,
    "moy": 1529,
    "dio": 1530,
    "prise": 1531,
    "marché": 1532,
    "décis": 1533,
    "propre": 1534,
    "équipe": 1535,
    "classe": 1536,
    "hor": 1537,
    "savait": 1538,
    "avion": 1539,
    "commencer": 1540,
    "boî": 1541,
    "invité": 1542,
    "amou": 1543,
    "perdre": 1544,
    "cation": 1545,
    "complè": 1546,
    "tomber": 1547,
    "rec": 1548,
    "parce": 1549,
    "certain": 1550,
    "nombreux": 1551,
    "vée": 1552,
    "rés": 1553,
    "répondre": 1554,
    "mit": 1555,
    "enir": 1556,
    "stupi": 1557,
    "Aus": 1558,
    "Sais": 1559,
    "gée": 1560,
    "ouvrir": 1561,
    "alité": 1562,
    "enseign": 1563,
    "tenu": 1564,
    "aban": 1565,
    "certaine": 1566,
    "règ": 1567,
    "but": 1568,
    "fit": 1569,
    "savez": 1570,
    "to": 1571,
    "chanson": 1572,
    "chaussures": 1573,
    "Pens": 1574,
    "santé": 1575,
    "ok": 1576,
    "reg": 1577,
    "refus": 1578,
    "celle": 1579,
    "rière": 1580,
    "appelé": 1581,
    "cens": 1582,
    "cœur": 1583,
    "fo": 1584,
    "soin": 1585,
    "sage": 1586,
    "entrer": 1587,
    "trait": 1588,
    "riche": 1589,
    "liez": 1590,
    "viv": 1591,
    "voulons": 1592,
    "dispose": 1593,
    "rappelle": 1594,
    "respons": 1595,
    "Voi": 1596,
    "lun": 1597,
    "chap": 1598,
    "garder": 1599,
    "bruit": 1600,
    "consci": 1601,
    "fumer": 1602,
    "At": 1603,
    "Pense": 1604,
    "bout": 1605,
    "anni": 1606,
    "langue": 1607,
    "rapidement": 1608,
    "revoir": 1609,
    "position": 1610,
    "télévision": 1611,
    "cité": 1612,
    "fas": 1613,
    "rentrer": 1614,
    "complètement": 1615,
    "Faites": 1616,
    "dol": 1617,
    "aies": 1618,
    "désor": 1619,
    "derrière": 1620,
    "restau": 1621,
    "instant": 1622,
    "devenir": 1623,
    "nécessaire": 1624,
    "âmes": 1625,
    "aviez": 1626,
    "trente": 1627,
    "gagner": 1628,
    "Penses": 1629,
    "Dites": 1630,
    "sons": 1631,
    "ilité": 1632,
    "urent": 1633,
    "proche": 1634,
    "laisse": 1635,
    "gues": 1636,
    "bébé": 1637,
    "vacances": 1638,
    "dollar": 1639,
    "pois": 1640,
    "arbre": 1641,
    "voulu": 1642,
    "numé": 1643,
    "vouloir": 1644,
    "ayez": 1645,
    "rit": 1646,
    "aimé": 1647,
    "esp": 1648,
    "reconnais": 1649,
    "reçu": 1650,
    "ligent": 1651,
    "bière": 1652,
    "dispos": 1653,
    "tennis": 1654,
    "étudiants": 1655,
    "hôtel": 1656,
    "Savez": 1657,
    "ig": 1658,
    "siez": 1659,
    "route": 1660,
    "magasin": 1661,
    "décision": 1662,
    "boîte": 1663,
    "numéro": 1664,
    "cès": 1665,
    "join": 1666,
    "naire": 1667,
    "manche": 1668,
    "croy": 1669,
    "intéressant": 1670,
    "cause": 1671,
    "sorte": 1672,
    "ferai": 1673,
    "façon": 1674,
    "droit": 1675,
    "Austra": 1676,
    "Pensez": 1677,
    "four": 1678,
    "tort": 1679,
    "ze": 1680,
    "épous": 1681,
    "indre": 1682,
    "viendra": 1683,
    "rav": 1684,
    "embras": 1685,
    "plein": 1686,
    "versaire": 1687,
    "affaires": 1688,
    "chapeau": 1689,
    "trom": 1690,
    "change": 1691,
    "souviens": 1692,
    "Australie": 1693,
    "Des": 1694,
    "rue": 1695,
    "tac": 1696,
    "mez": 1697,
    "sions": 1698,
    "endor": 1699,
    "diction": 1700,
    "Comme": 1701,
    "quatre": 1702,
    "pital": 1703,
    "Ton": 1704,
    "enez": 1705,
    "oise": 1706,
    "publi": 1707,
    "prun": 1708,
    "intel": 1709,
    "mauvaise": 1710,
    "réflé": 1711,
    "Tou": 1712,
    "font": 1713,
    "cho": 1714,
    "prin": 1715,
    "indi": 1716,
    "robe": 1717,
    "neige": 1718,
    "xi": 1719,
    "tron": 1720,
    "amé": 1721,
    "traver": 1722,
    "cherche": 1723,
    "frap": 1724,
    "montrer": 1725,
    "Cet": 1726,
    "emprun": 1727,
    "finir": 1728,
    "choisi": 1729,
    "anniversaire": 1730,
    "dollars": 1731,
    "fasse": 1732,
    "tié": 1733,
    "poste": 1734,
    "hè": 1735,
    "œil": 1736,
    "tive": 1737,
    "amies": 1738,
    "lundi": 1739,
    "00": 1740,
    "ari": 1741,
    "iter": 1742,
    "hôpital": 1743,
    "cadeau": 1744,
    "restaurant": 1745,
    "Pren": 1746,
    "sante": 1747,
    "pan": 1748,
    "préfère": 1749,
    "stupide": 1750,
    "géné": 1751,
    "adres": 1752,
    "rouge": 1753,
    "nombreuses": 1754,
    "cre": 1755,
    "aimes": 1756,
    "esse": 1757,
    "alent": 1758,
    "réve": 1759,
    "devant": 1760,
    "pleurer": 1761,
    "fie": 1762,
    "lation": 1763,
    "tré": 1764,
    "super": 1765,
    "ita": 1766,
    "lorsqu": 1767,
    "signi": 1768,
    "situation": 1769,
    "gt": 1770,
    "envi": 1771,
    "leil": 1772,
    "libre": 1773,
    "changé": 1774,
    "faisait": 1775,
    "veulent": 1776,
    "empê": 1777,
    "plaisir": 1778,
    "intelligent": 1779,
    "Lors": 1780,
    "ay": 1781,
    "alement": 1782,
    "ek": 1783,
    "vête": 1784,
    "éte": 1785,
    "prête": 1786,
    "rire": 1787,
    "guerre": 1788,
    "week": 1789,
    "zar": 1790,
    "illa": 1791,
    "parc": 1792,
    "tés": 1793,
    "examen": 1794,
    "souff": 1795,
    "carte": 1796,
    "cuisine": 1797,
    "cée": 1798,
    "éra": 1799,
    "années": 1800,
    "lumière": 1801,
    "type": 1802,
    "Al": 1803,
    "jard": 1804,
    "iné": 1805,
    "mont": 1806,
    "iller": 1807,
    "filles": 1808,
    "goû": 1809,
    "ball": 1810,
    "suffisamment": 1811,
    "Av": 1812,
    "sug": 1813,
    "racon": 1814,
    "dange": 1815,
    "No": 1816,
    "six": 1817,
    "sieurs": 1818,
    "expé": 1819,
    "othè": 1820,
    "vieille": 1821,
    "gâteau": 1822,
    "ène": 1823,
    "reti": 1824,
    "résou": 1825,
    "mots": 1826,
    "désormais": 1827,
    "noir": 1828,
    "chir": 1829,
    "dimanche": 1830,
    "cro": 1831,
    "fermé": 1832,
    "plain": 1833,
    "pareil": 1834,
    "vêtements": 1835,
    "aidé": 1836,
    "ano": 1837,
    "entend": 1838,
    "laquelle": 1839,
    "tuer": 1840,
    "tures": 1841,
    "antes": 1842,
    "manteau": 1843,
    "quiconque": 1844,
    "donc": 1845,
    "demanda": 1846,
    "plage": 1847,
    "meilleure": 1848,
    "nez": 1849,
    "anim": 1850,
    "attends": 1851,
    "courir": 1852,
    "moindre": 1853,
    "mourir": 1854,
    "jardin": 1855,
    "Ou": 1856,
    "véri": 1857,
    "rence": 1858,
    "excuses": 1859,
    "cap": 1860,
    "furent": 1861,
    "hommes": 1862,
    "jo": 1863,
    "poid": 1864,
    "ël": 1865,
    "mets": 1866,
    "soleil": 1867,
    "dictionnaire": 1868,
    "Noël": 1869,
    "résoudre": 1870,
    "poids": 1871,
    "Soyez": 1872,
    "doi": 1873,
    "gie": 1874,
    "ole": 1875,
    "aim": 1876,
    "remar": 1877,
    "manque": 1878,
    "Prends": 1879,
    "reuse": 1880,
    "tin": 1881,
    "ray": 1882,
    "donna": 1883,
    "prenez": 1884,
    "expliquer": 1885,
    "cré": 1886,
    "amour": 1887,
    "pluie": 1888,
    "écouter": 1889,
    "nor": 1890,
    "pes": 1891,
    "lever": 1892,
    "rivi": 1893,
    "pire": 1894,
    "correc": 1895,
    "rapport": 1896,
    "minute": 1897,
    "étrange": 1898,
    "respec": 1899,
    "faute": 1900,
    "agé": 1901,
    "mesure": 1902,
    "raî": 1903,
    "empl": 1904,
    "honn": 1905,
    "Rien": 1906,
    "bâ": 1907,
    "vaut": 1908,
    "llement": 1909,
    "lus": 1910,
    "atte": 1911,
    "porté": 1912,
    "rêve": 1913,
    "promen": 1914,
    "patient": 1915,
    "japonais": 1916,
    "Cert": 1917,
    "bag": 1918,
    "avaient": 1919,
    "conf": 1920,
    "occa": 1921,
    "souhait": 1922,
    "Ses": 1923,
    "blan": 1924,
    "ieu": 1925,
    "tile": 1926,
    "compris": 1927,
    "attendu": 1928,
    "devenu": 1929,
    "ds": 1930,
    "liste": 1931,
    "nais": 1932,
    "sil": 1933,
    "bibli": 1934,
    "chiens": 1935,
    "occuper": 1936,
    "connaît": 1937,
    "rivière": 1938,
    "cend": 1939,
    "fleurs": 1940,
    "lant": 1941,
    "remerci": 1942,
    "papier": 1943,
    "ira": 1944,
    "vécu": 1945,
    "soci": 1946,
    "surprise": 1947,
    "yo": 1948,
    "avions": 1949,
    "réparer": 1950,
    "volé": 1951,
    "opin": 1952,
    "nett": 1953,
    "succès": 1954,
    "Améri": 1955,
    "coin": 1956,
    "mment": 1957,
    "pec": 1958,
    "éner": 1959,
    "lier": 1960,
    "bizar": 1961,
    "Auc": 1962,
    "bibliothè": 1963,
    "meu": 1964,
    "sance": 1965,
    "irai": 1966,
    "prépar": 1967,
    "piano": 1968,
    "feriez": 1969,
    "face": 1970,
    "quitter": 1971,
    "danger": 1972,
    "attraper": 1973,
    "do": 1974,
    "dom": 1975,
    "tons": 1976,
    "remp": 1977,
    "vienne": 1978,
    "Allez": 1979,
    "fac": 1980,
    "tasse": 1981,
    "réjou": 1982,
    "compli": 1983,
    "Prenez": 1984,
    "Dans": 1985,
    "ég": 1986,
    "œuf": 1987,
    "enci": 1988,
    "tient": 1989,
    "tombé": 1990,
    "expérien": 1991,
    "bibliothèque": 1992,
    "30": 1993,
    "dres": 1994,
    "sty": 1995,
    "repas": 1996,
    "avis": 1997,
    "illée": 1998,
    "invit": 1999,
    "diffi": 2000,
    "erreurs": 2001,
    "Donnez": 2002,
    "vendre": 2003,
    "secon": 2004,
    "incon": 2005,
    "travers": 2006,
    "gentil": 2007,
    "oublie": 2008,
    "honnête": 2009,
    "ement": 2010,
    "st": 2011,
    "serez": 2012,
    "art": 2013,
    "appareil": 2014,
    "court": 2015,
    "regardé": 2016,
    "bateau": 2017,
    "grosse": 2018,
    "adresse": 2019,
    "ède": 2020,
    "esprit": 2021,
    "avoc": 2022,
    "assu": 2023,
    "plupart": 2024,
    "accus": 2025,
    "regarde": 2026,
    "payé": 2027,
    "femmes": 2028,
    "nettes": 2029,
    "coûte": 2030,
    "poisson": 2031,
    "dangereux": 2032,
    "occasion": 2033,
    "Après": 2034,
    "bla": 2035,
    "arti": 2036,
    "allée": 2037,
    "finalement": 2038,
    "satisfait": 2039,
    "règles": 2040,
    "Tok": 2041,
    "gla": 2042,
    "espé": 2043,
    "erais": 2044,
    "entends": 2045,
    "parap": 2046,
    "profon": 2047,
    "autour": 2048,
    "dormi": 2049,
    "roman": 2050,
    "Regarde": 2051,
    "obligé": 2052,
    "sym": 2053,
    "sommeil": 2054,
    "amoureux": 2055,
    "réjouis": 2056,
    "Tokyo": 2057,
    "idi": 2058,
    "dition": 2059,
    "projet": 2060,
    "sentir": 2061,
    "chante": 2062,
    "pleuvoir": 2063,
    "bâti": 2064,
    "fav": 2065,
    "pommes": 2066,
    "lunettes": 2067,
    "Essay": 2068,
    "institu": 2069,
    "univers": 2070,
    "Voici": 2071,
    "Lorsque": 2072,
    "bizarre": 2073,
    "idiot": 2074,
    "Ta": 2075,
    "haut": 2076,
    "éga": 2077,
    "rible": 2078,
    "vien": 2079,
    "danser": 2080,
    "intéressé": 2081,
    "connaître": 2082,
    "nement": 2083,
    "radio": 2084,
    "véni": 2085,
    "marche": 2086,
    "lève": 2087,
    "fera": 2088,
    "prêter": 2089,
    "étr": 2090,
    "réal": 2091,
    "actu": 2092,
    "venus": 2093,
    "resté": 2094,
    "regard": 2095,
    "présenter": 2096,
    "inconvéni": 2097,
    "ique": 2098,
    "ps": 2099,
    "sin": 2100,
    "tué": 2101,
    "mette": 2102,
    "rép": 2103,
    "ressemble": 2104,
    "impos": 2105,
    "jeunes": 2106,
    "doute": 2107,
    "fonctionne": 2108,
    "Toutes": 2109,
    "Beau": 2110,
    "Et": 2111,
    "bri": 2112,
    "pain": 2113,
    "oncle": 2114,
    "éter": 2115,
    "die": 2116,
    "aines": 2117,
    "plusieurs": 2118,
    "cru": 2119,
    "rendez": 2120,
    "vieil": 2121,
    "grou": 2122,
    "faite": 2123,
    "effray": 2124,
    "clair": 2125,
    "Arrêtez": 2126,
    "inconvénient": 2127,
    "bais": 2128,
    "bons": 2129,
    "lâ": 2130,
    "neuf": 2131,
    "sep": 2132,
    "proposition": 2133,
    "fermer": 2134,
    "étudiant": 2135,
    "allés": 2136,
    "sérieux": 2137,
    "sérieuse": 2138,
    "Beaucoup": 2139,
    "Gar": 2140,
    "cli": 2141,
    "rhu": 2142,
    "résul": 2143,
    "mien": 2144,
    "mign": 2145,
    "faisons": 2146,
    "photos": 2147,
    "cassé": 2148,
    "ade": 2149,
    "gle": 2150,
    "utile": 2151,
    "auriez": 2152,
    "inf": 2153,
    "parlez": 2154,
    "luie": 2155,
    "mation": 2156,
    "habite": 2157,
    "promis": 2158,
    "rappeler": 2159,
    "expérience": 2160,
    "parapluie": 2161,
    "quis": 2162,
    "anti": 2163,
    "triste": 2164,
    "contac": 2165,
    "brou": 2166,
    "visage": 2167,
    "entreprise": 2168,
    "suivre": 2169,
    "tableau": 2170,
    "attendais": 2171,
    "truc": 2172,
    "convaincu": 2173,
    "résult": 2174,
    "parfois": 2175,
    "dispu": 2176,
    "fatiguée": 2177,
    "médica": 2178,
    "clu": 2179,
    "igne": 2180,
    "mê": 2181,
    "tée": 2182,
    "tien": 2183,
    "parviens": 2184,
    "dirait": 2185,
    "copi": 2186,
    "courant": 2187,
    "durant": 2188,
    "Déso": 2189,
    "opinion": 2190,
    "ate": 2191,
    "gau": 2192,
    "sort": 2193,
    "dés": 2194,
    "irent": 2195,
    "simple": 2196,
    "conseils": 2197,
    "gagné": 2198,
    "joindre": 2199,
    "avocat": 2200,
    "Suis": 2201,
    "bour": 2202,
    "gère": 2203,
    "patron": 2204,
    "lac": 2205,
    "chou": 2206,
    "para": 2207,
    "cheval": 2208,
    "ador": 2209,
    "considé": 2210,
    "asseoir": 2211,
    "espoir": 2212,
    "Me": 2213,
    "spé": 2214,
    "tance": 2215,
    "traite": 2216,
    "dési": 2217,
    "mariage": 2218,
    "échec": 2219,
    "préféré": 2220,
    "enseignant": 2221,
    "mur": 2222,
    "sident": 2223,
    "salle": 2224,
    "seras": 2225,
    "seriez": 2226,
    "garçons": 2227,
    "voix": 2228,
    "chats": 2229,
    "échou": 2230,
    "souhaite": 2231,
    "pieds": 2232,
    "empêcher": 2233,
    "Sois": 2234,
    "mou": 2235,
    "prouv": 2236,
    "tempête": 2237,
    "rare": 2238,
    "Quelque": 2239,
    "étudie": 2240,
    "boute": 2241,
    "tradu": 2242,
    "accepter": 2243,
    "Allons": 2244,
    "spéci": 2245,
    "ali": 2246,
    "dos": 2247,
    "gri": 2248,
    "mus": 2249,
    "nage": 2250,
    "rat": 2251,
    "éro": 2252,
    "erai": 2253,
    "cir": 2254,
    "taxi": 2255,
    "particu": 2256,
    "popu": 2257,
    "supporter": 2258,
    "vingt": 2259,
    "clés": 2260,
    "montag": 2261,
    "sympa": 2262,
    "également": 2263,
    "sal": 2264,
    "estez": 2265,
    "ciel": 2266,
    "concert": 2267,
    "comprend": 2268,
    "atta": 2269,
    "coucher": 2270,
    "Ceci": 2271,
    "tranqu": 2272,
    "base": 2273,
    "Voudriez": 2274,
    "animaux": 2275,
    "gez": 2276,
    "poi": 2277,
    "cel": 2278,
    "début": 2279,
    "vement": 2280,
    "impli": 2281,
    "Quiconque": 2282,
    "voyager": 2283,
    "échap": 2284,
    "amusant": 2285,
    "pêcher": 2286,
    "emprunter": 2287,
    "uve": 2288,
    "ande": 2289,
    "message": 2290,
    "chemise": 2291,
    "marier": 2292,
    "Montre": 2293,
    "banque": 2294,
    "signifie": 2295,
    "Amérique": 2296,
    "impossible": 2297,
    "bord": 2298,
    "ck": 2299,
    "taille": 2300,
    "dedans": 2301,
    "enseig": 2302,
    "pein": 2303,
    "bonnes": 2304,
    "teurs": 2305,
    "intérieur": 2306,
    "trice": 2307,
    "sentiment": 2308,
    "ignorais": 2309,
    "gment": 2310,
    "aign": 2311,
    "chaise": 2312,
    "viande": 2313,
    "discours": 2314,
    "cherch": 2315,
    "aimez": 2316,
    "géni": 2317,
    "absent": 2318,
    "douleur": 2319,
    "conseillé": 2320,
    "facilement": 2321,
    "battre": 2322,
    "responsable": 2323,
    "sci": 2324,
    "tiens": 2325,
    "menti": 2326,
    "ines": 2327,
    "déli": 2328,
    "nature": 2329,
    "drôle": 2330,
    "rhume": 2331,
    "Fer": 2332,
    "Fran": 2333,
    "levé": 2334,
    "anci": 2335,
    "oite": 2336,
    "passée": 2337,
    "préc": 2338,
    "portes": 2339,
    "gérer": 2340,
    "entretenir": 2341,
    "barras": 2342,
    "honte": 2343,
    "dérange": 2344,
    "pauvre": 2345,
    "moyen": 2346,
    "foot": 2347,
    "Tr": 2348,
    "bille": 2349,
    "nel": 2350,
    "arme": 2351,
    "monter": 2352,
    "sert": 2353,
    "guita": 2354,
    "Quels": 2355,
    "gram": 2356,
    "compter": 2357,
    "ouverte": 2358,
    "marié": 2359,
    "sucre": 2360,
    "guitare": 2361,
    "dès": 2362,
    "lequel": 2363,
    "annu": 2364,
    "trans": 2365,
    "parfait": 2366,
    "congé": 2367,
    "comm": 2368,
    "vivent": 2369,
    "propres": 2370,
    "ables": 2371,
    "différence": 2372,
    "essaie": 2373,
    "environ": 2374,
    "œufs": 2375,
    "fallu": 2376,
    "hau": 2377,
    "ly": 2378,
    "tir": 2379,
    "conom": 2380,
    "moitié": 2381,
    "couleur": 2382,
    "direc": 2383,
    "travaillé": 2384,
    "dents": 2385,
    "forme": 2386,
    "idées": 2387,
    "continuer": 2388,
    "élec": 2389,
    "compagn": 2390,
    "seconde": 2391,
    "bâtiment": 2392,
    "Reste": 2393,
    "Restez": 2394,
    "Venez": 2395,
    "pis": 2396,
    "savons": 2397,
    "ttes": 2398,
    "entraî": 2399,
    "tiques": 2400,
    "laissez": 2401,
    "exté": 2402,
    "maines": 2403,
    "contente": 2404,
    "An": 2405,
    "ition": 2406,
    "pai": 2407,
    "esti": 2408,
    "euses": 2409,
    "augment": 2410,
    "vide": 2411,
    "retourner": 2412,
    "conscience": 2413,
    "réfléchir": 2414,
    "illage": 2415,
    "sept": 2416,
    "Viens": 2417,
    "gan": 2418,
    "nav": 2419,
    "économ": 2420,
    "quée": 2421,
    "avance": 2422,
    "vouliez": 2423,
    "fruit": 2424,
    "célè": 2425,
    "souvenir": 2426,
    "risque": 2427,
    "aimait": 2428,
    "stylo": 2429,
    "étrang": 2430,
    "Main": 2431,
    "doc": 2432,
    "gner": 2433,
    "ies": 2434,
    "laire": 2435,
    "sk": 2436,
    "aiment": 2437,
    "cier": 2438,
    "heur": 2439,
    "menson": 2440,
    "contrari": 2441,
    "soirée": 2442,
    "hiver": 2443,
    "semblait": 2444,
    "milli": 2445,
    "États": 2446,
    "reconnaissant": 2447,
    "université": 2448,
    "gauche": 2449,
    "Plus": 2450,
    "adi": 2451,
    "aéro": 2452,
    "recomman": 2453,
    "semaines": 2454,
    "incroy": 2455,
    "ection": 2456,
    "machi": 2457,
    "fique": 2458,
    "mariée": 2459,
    "calme": 2460,
    "Connais": 2461,
    "Voudrais": 2462,
    "Avec": 2463,
    "machine": 2464,
    "Hier": 2465,
    "Ré": 2466,
    "pont": 2467,
    "ombre": 2468,
    "pra": 2469,
    "its": 2470,
    "apparti": 2471,
    "permis": 2472,
    "tation": 2473,
    "pleut": 2474,
    "détest": 2475,
    "supposé": 2476,
    "goût": 2477,
    "société": 2478,
    "bain": 2479,
    "rie": 2480,
    "démission": 2481,
    "réser": 2482,
    "sache": 2483,
    "huit": 2484,
    "commença": 2485,
    "certainement": 2486,
    "copine": 2487,
    "ho": 2488,
    "pagne": 2489,
    "tro": 2490,
    "parole": 2491,
    "crav": 2492,
    "extr": 2493,
    "emb": 2494,
    "fié": 2495,
    "brû": 2496,
    "bouton": 2497,
    "douche": 2498,
    "produire": 2499,
    "décider": 2500,
    "Regardez": 2501,
    "jolie": 2502,
    "difficul": 2503,
    "Bien": 2504,
    "mie": 2505,
    "zz": 2506,
    "montré": 2507,
    "prévu": 2508,
    "crains": 2509,
    "longue": 2510,
    "quitté": 2511,
    "groupe": 2512,
    "Maintenant": 2513,
    "Va": 2514,
    "cit": 2515,
    "gouver": 2516,
    "sav": 2517,
    "Quoi": 2518,
    "agré": 2519,
    "manqué": 2520,
    "atti": 2521,
    "rentré": 2522,
    "détail": 2523,
    "ciné": 2524,
    "apprécié": 2525,
    "ennuis": 2526,
    "rarement": 2527,
    "tranquille": 2528,
    "extérieur": 2529,
    "cravate": 2530,
    "Te": 2531,
    "bilité": 2532,
    "hom": 2533,
    "chée": 2534,
    "organ": 2535,
    "partout": 2536,
    "allais": 2537,
    "merveille": 2538,
    "verrou": 2539,
    "rase": 2540,
    "garde": 2541,
    "grav": 2542,
    "obtenir": 2543,
    "Unis": 2544,
    "attenti": 2545,
    "envoyé": 2546,
    "censé": 2547,
    "améli": 2548,
    "nettoyer": 2549,
    "Aucun": 2550,
    "aéroport": 2551,
    "Dieu": 2552,
    "entière": 2553,
    "lat": 2554,
    "avenir": 2555,
    "dépend": 2556,
    "comporte": 2557,
    "acun": 2558,
    "expl": 2559,
    "poss": 2560,
    "ferme": 2561,
    "obje": 2562,
    "réussir": 2563,
    "blague": 2564,
    "clo": 2565,
    "din": 2566,
    "pomme": 2567,
    "rerais": 2568,
    "isée": 2569,
    "chin": 2570,
    "possi": 2571,
    "semblez": 2572,
    "imagin": 2573,
    "réveillé": 2574,
    "vérifier": 2575,
    "remercier": 2576,
    "faveur": 2577,
    "docteur": 2578,
    "Cr": 2579,
    "dest": 2580,
    "dence": 2581,
    "ible": 2582,
    "orer": 2583,
    "raient": 2584,
    "tar": 2585,
    "revenu": 2586,
    "iles": 2587,
    "mani": 2588,
    "couteau": 2589,
    "New": 2590,
    "dispar": 2591,
    "sembles": 2592,
    "ferait": 2593,
    "habituellement": 2594,
    "cuisiner": 2595,
    "silenci": 2596,
    "montagne": 2597,
    "célèbre": 2598,
    "Ex": 2599,
    "fri": 2600,
    "yons": 2601,
    "deur": 2602,
    "truit": 2603,
    "ork": 2604,
    "parles": 2605,
    "portait": 2606,
    "gagne": 2607,
    "importante": 2608,
    "Aimer": 2609,
    "mettez": 2610,
    "Désolé": 2611,
    "incroyable": 2612,
    "Peu": 2613,
    "ations": 2614,
    "ber": 2615,
    "vant": 2616,
    "îmes": 2617,
    "ailles": 2618,
    "démar": 2619,
    "déçu": 2620,
    "manquer": 2621,
    "coupa": 2622,
    "cray": 2623,
    "tendez": 2624,
    "arrivée": 2625,
    "chauff": 2626,
    "Aujourd": 2627,
    "endormi": 2628,
    "dort": 2629,
    "gence": 2630,
    "jal": 2631,
    "mille": 2632,
    "morte": 2633,
    "mbres": 2634,
    "sang": 2635,
    "envers": 2636,
    "mentir": 2637,
    "rier": 2638,
    "mand": 2639,
    "quelconque": 2640,
    "lèves": 2641,
    "abilité": 2642,
    "voyez": 2643,
    "vint": 2644,
    "prudente": 2645,
    "attrapé": 2646,
    "conseilla": 2647,
    "information": 2648,
    "agréable": 2649,
    "In": 2650,
    "York": 2651,
    "frais": 2652,
    "gra": 2653,
    "timi": 2654,
    "ing": 2655,
    "dure": 2656,
    "apé": 2657,
    "rég": 2658,
    "mienne": 2659,
    "Ess": 2660,
    "phrase": 2661,
    "seuls": 2662,
    "empor": 2663,
    "obtenu": 2664,
    "répondu": 2665,
    "réellement": 2666,
    "tombée": 2667,
    "service": 2668,
    "embrasser": 2669,
    "public": 2670,
    "employ": 2671,
    "blanc": 2672,
    "chouette": 2673,
    "he": 2674,
    "mbre": 2675,
    "oh": 2676,
    "tend": 2677,
    "revenir": 2678,
    "ises": 2679,
    "accompa": 2680,
    "acquis": 2681,
    "préparer": 2682,
    "courses": 2683,
    "arrêt": 2684,
    "langues": 2685,
    "mêmes": 2686,
    "bouteille": 2687,
    "noc": 2688,
    "tor": 2689,
    "isez": 2690,
    "aurai": 2691,
    "siè": 2692,
    "dise": 2693,
    "disent": 2694,
    "demand": 2695,
    "lentement": 2696,
    "promesse": 2697,
    "rencontrés": 2698,
    "sauf": 2699,
    "terminer": 2700,
    "veiller": 2701,
    "généra": 2702,
    "promenade": 2703,
    "glace": 2704,
    "viennent": 2705,
    "Essaie": 2706,
    "dra": 2707,
    "fant": 2708,
    "gné": 2709,
    "debout": 2710,
    "cine": 2711,
    "président": 2712,
    "venez": 2713,
    "forcé": 2714,
    "corps": 2715,
    "cédé": 2716,
    "étudié": 2717,
    "conduit": 2718,
    "sourire": 2719,
    "ennuy": 2720,
    "morce": 2721,
    "déranger": 2722,
    "choisir": 2723,
    "sérieusement": 2724,
    "extrême": 2725,
    "Lon": 2726,
    "Sont": 2727,
    "vor": 2728,
    "vus": 2729,
    "quin": 2730,
    "ange": 2731,
    "ill": 2732,
    "lic": 2733,
    "èrement": 2734,
    "agis": 2735,
    "fiche": 2736,
    "date": 2737,
    "balle": 2738,
    "effec": 2739,
    "élevé": 2740,
    "note": 2741,
    "moyens": 2742,
    "abandonner": 2743,
    "actuellement": 2744,
    "cinéma": 2745,
    "possède": 2746,
    "Londres": 2747,
    "Vos": 2748,
    "hâ": 2749,
    "oles": 2750,
    "sport": 2751,
    "tal": 2752,
    "âgé": 2753,
    "rette": 2754,
    "sie": 2755,
    "démé": 2756,
    "dipl": 2757,
    "ligne": 2758,
    "seront": 2759,
    "excel": 2760,
    "heureuses": 2761,
    "visiter": 2762,
    "forte": 2763,
    "promets": 2764,
    "maladie": 2765,
    "feuille": 2766,
    "offre": 2767,
    "gouvernement": 2768,
    "fallait": 2769,
    "pen": 2770,
    "test": 2771,
    "éri": 2772,
    "ôtre": 2773,
    "pause": 2774,
    "parfai": 2775,
    "ouvre": 2776,
    "ambi": 2777,
    "desc": 2778,
    "proté": 2779,
    "curi": 2780,
    "chef": 2781,
    "séjour": 2782,
    "chanceux": 2783,
    "humeur": 2784,
    "venues": 2785,
    "regarda": 2786,
    "viendrai": 2787,
    "claire": 2788,
    "capit": 2789,
    "parfaitement": 2790,
    "Pré": 2791,
    "Tes": 2792,
    "mage": 2793,
    "vend": 2794,
    "évi": 2795,
    "élé": 2796,
    "chis": 2797,
    "tick": 2798,
    "diri": 2799,
    "appro": 2800,
    "voler": 2801,
    "cule": 2802,
    "nerveux": 2803,
    "seules": 2804,
    "emmen": 2805,
    "ettez": 2806,
    "grands": 2807,
    "suivi": 2808,
    "prêts": 2809,
    "importance": 2810,
    "excuser": 2811,
    "solution": 2812,
    "appartement": 2813,
    "confection": 2814,
    "instituteur": 2815,
    "19": 2816,
    "cents": 2817,
    "lise": 2818,
    "êtres": 2819,
    "devrai": 2820,
    "trou": 2821,
    "étage": 2822,
    "voitures": 2823,
    "impati": 2824,
    "soud": 2825,
    "absolu": 2826,
    "portez": 2827,
    "appel": 2828,
    "oubliez": 2829,
    "Paris": 2830,
    "canapé": 2831,
    "match": 2832,
    "convaincre": 2833,
    "musée": 2834,
    "Joh": 2835,
    "Même": 2836,
    "afin": 2837,
    "bis": 2838,
    "cy": 2839,
    "ros": 2840,
    "talent": 2841,
    "élèves": 2842,
    "esca": 2843,
    "istes": 2844,
    "laver": 2845,
    "sel": 2846,
    "innoc": 2847,
    "dirai": 2848,
    "divor": 2849,
    "vio": 2850,
    "exi": 2851,
    "arrière": 2852,
    "décla": 2853,
    "découvert": 2854,
    "effort": 2855,
    "Aimes": 2856,
    "Aimez": 2857,
    "gique": 2858,
    "inquiète": 2859,
    "épouser": 2860,
    "ravi": 2861,
    "Certains": 2862,
    "France": 2863,
    "appartient": 2864,
    "possibilité": 2865,
    "John": 2866,
    "hy": 2867,
    "ui": 2868,
    "reconnu": 2869,
    "aura": 2870,
    "pron": 2871,
    "ortez": 2872,
    "arriv": 2873,
    "assée": 2874,
    "écoute": 2875,
    "préférerais": 2876,
    "regrette": 2877,
    "oiseau": 2878,
    "frappé": 2879,
    "préparé": 2880,
    "contact": 2881,
    "extrêmement": 2882,
    "Vas": 2883,
    "lin": 2884,
    "écla": 2885,
    "oui": 2886,
    "ref": 2887,
    "repos": 2888,
    "entrée": 2889,
    "appu": 2890,
    "urs": 2891,
    "grap": 2892,
    "corde": 2893,
    "politique": 2894,
    "occupés": 2895,
    "vérit": 2896,
    "assurer": 2897,
    "Essayez": 2898,
    "pronon": 2899,
    "sit": 2900,
    "rem": 2901,
    "enti": 2902,
    "pourriez": 2903,
    "rées": 2904,
    "faits": 2905,
    "terrible": 2906,
    "perte": 2907,
    "prévois": 2908,
    "octo": 2909,
    "courage": 2910,
    "fière": 2911,
    "frères": 2912,
    "force": 2913,
    "pleine": 2914,
    "blessée": 2915,
    "droite": 2916,
    "plaisant": 2917,
    "trucs": 2918,
    "refusé": 2919,
    "choco": 2920,
    "princi": 2921,
    "printemps": 2922,
    "Garde": 2923,
    "savent": 2924,
    "Mets": 2925,
    "Ser": 2926,
    "oo": 2927,
    "sence": 2928,
    "celles": 2929,
    "arbres": 2930,
    "débrou": 2931,
    "débarras": 2932,
    "lions": 2933,
    "moire": 2934,
    "légu": 2935,
    "exam": 2936,
    "verrai": 2937,
    "pensait": 2938,
    "Deman": 2939,
    "valise": 2940,
    "lettes": 2941,
    "informati": 2942,
    "médicament": 2943,
    "paix": 2944,
    "silencieux": 2945,
    "octobre": 2946,
    "Pas": 2947,
    "cos": 2948,
    "faux": 2949,
    "nie": 2950,
    "ront": 2951,
    "village": 2952,
    "épuis": 2953,
    "inaire": 2954,
    "concent": 2955,
    "accro": 2956,
    "plant": 2957,
    "faisais": 2958,
    "essaya": 2959,
    "nouveaux": 2960,
    "sûrs": 2961,
    "champ": 2962,
    "donnerai": 2963,
    "sold": 2964,
    "autorisé": 2965,
    "Certaines": 2966,
    "fruits": 2967,
    "acquisition": 2968,
    "excellent": 2969,
    "10": 2970,
    "Thom": 2971,
    "cis": 2972,
    "lour": 2973,
    "mai": 2974,
    "égar": 2975,
    "ensuite": 2976,
    "recherche": 2977,
    "serons": 2978,
    "colle": 2979,
    "permettre": 2980,
    "peint": 2981,
    "cuse": 2982,
    "portable": 2983,
    "dises": 2984,
    "partici": 2985,
    "connaissance": 2986,
    "consac": 2987,
    "posez": 2988,
    "habitué": 2989,
    "Pouvons": 2990,
    "crayon": 2991,
    "Thomas": 2992,
    "fis": 2993,
    "fré": 2994,
    "éve": 2995,
    "cevoir": 2996,
    "prét": 2997,
    "prêtes": 2998,
    "trac": 2999,
    "assi": 3000,
    "versa": 3001,
    "opéra": 3002,
    "privé": 3003,
    "ennemi": 3004,
    "fond": 3005,
    "intéressante": 3006,
    "arrivera": 3007,
    "préférée": 3008,
    "soucie": 3009,
    "éteindre": 3010,
    "article": 3011,
    "football": 3012,
    "compagnie": 3013,
    "destin": 3014,
    "protéger": 3015,
    "cais": 3016,
    "ctu": 3017,
    "nant": 3018,
    "pleur": 3019,
    "vel": 3020,
    "épau": 3021,
    "endez": 3022,
    "selle": 3023,
    "aver": 3024,
    "tur": 3025,
    "sure": 3026,
    "invent": 3027,
    "incend": 3028,
    "pars": 3029,
    "pourrions": 3030,
    "concer": 3031,
    "enseigne": 3032,
    "couper": 3033,
    "persu": 3034,
    "impatient": 3035,
    "grandes": 3036,
    "essaye": 3037,
    "crime": 3038,
    "suppos": 3039,
    "sortie": 3040,
    "larmes": 3041,
    "invités": 3042,
    "regret": 3043,
    "remarqué": 3044,
    "église": 3045,
    "enseigner": 3046,
    "mensonge": 3047,
    "cloche": 3048,
    "Alors": 3049,
    "Eh": 3050,
    "Eur": 3051,
    "ache": 3052,
    "her": 3053,
    "nation": 3054,
    "pil": 3055,
    "remettre": 3056,
    "page": 3057,
    "ermin": 3058,
    "jeter": 3059,
    "appli": 3060,
    "apporté": 3061,
    "rédu": 3062,
    "program": 3063,
    "permission": 3064,
    "jambe": 3065,
    "enfin": 3066,
    "grandi": 3067,
    "sûres": 3068,
    "prendrai": 3069,
    "voisins": 3070,
    "morts": 3071,
    "grossi": 3072,
    "assister": 3073,
    "fasses": 3074,
    "panne": 3075,
    "suggère": 3076,
    "raconter": 3077,
    "correctement": 3078,
    "billet": 3079,
    "coupable": 3080,
    "devraient": 3081,
    "absolument": 3082,
    "fs": 3083,
    "gas": 3084,
    "xe": 3085,
    "oux": 3086,
    "tremble": 3087,
    "ric": 3088,
    "riz": 3089,
    "urgence": 3090,
    "saou": 3091,
    "croit": 3092,
    "put": 3093,
    "voie": 3094,
    "obé": 3095,
    "Depuis": 3096,
    "prendra": 3097,
    "isément": 3098,
    "Chine": 3099,
    "interrom": 3100,
    "traverser": 3101,
    "précisément": 3102,
    "lycée": 3103,
    "hâte": 3104,
    "Jou": 3105,
    "Jus": 3106,
    "Sur": 3107,
    "ctif": 3108,
    "lai": 3109,
    "mè": 3110,
    "pâ": 3111,
    "plé": 3112,
    "voit": 3113,
    "évit": 3114,
    "ûmes": 3115,
    "quent": 3116,
    "aurez": 3117,
    "auras": 3118,
    "tume": 3119,
    "dérou": 3120,
    "commis": 3121,
    "résolu": 3122,
    "vrais": 3123,
    "devait": 3124,
    "autom": 3125,
    "nulle": 3126,
    "oyons": 3127,
    "Quelles": 3128,
    "joué": 3129,
    "oublier": 3130,
    "amusé": 3131,
    "amuser": 3132,
    "impressionné": 3133,
    "responsabilité": 3134,
    "embrassé": 3135,
    "bagages": 3136,
    "échecs": 3137,
    "spécial": 3138,
    "légumes": 3139,
    "Cha": 3140,
    "Ky": 3141,
    "Vi": 3142,
    "az": 3143,
    "has": 3144,
    "retraite": 3145,
    "chans": 3146,
    "état": 3147,
    "aman": 3148,
    "bleu": 3149,
    "mémoire": 3150,
    "tenait": 3151,
    "gué": 3152,
    "guer": 3153,
    "trouvait": 3154,
    "pique": 3155,
    "preuve": 3156,
    "chaude": 3157,
    "sentiments": 3158,
    "Faisons": 3159,
    "semblent": 3160,
    "imaginer": 3161,
    "lettres": 3162,
    "accepté": 3163,
    "soient": 3164,
    "Voilà": 3165,
    "énergie": 3166,
    "particulier": 3167,
    "chinois": 3168,
    "disparu": 3169,
    "morceau": 3170,
    "refuse": 3171,
    "Chaque": 3172,
    "chansons": 3173,
    "14": 3174,
    "20": 3175,
    "paire": 3176,
    "âche": 3177,
    "épo": 3178,
    "suici": 3179,
    "tire": 3180,
    "étoi": 3181,
    "ettes": 3182,
    "chaleur": 3183,
    "ception": 3184,
    "imagine": 3185,
    "pêche": 3186,
    "améric": 3187,
    "échoué": 3188,
    "circu": 3189,
    "entièrement": 3190,
    "diplô": 3191,
    "chocolat": 3192,
    "velop": 3193,
    "incendie": 3194,
    "époque": 3195,
    "Dois": 3196,
    "Voyez": 3197,
    "gré": 3198,
    "idio": 3199,
    "ope": 3200,
    "sombre": 3201,
    "isés": 3202,
    "time": 3203,
    "tiré": 3204,
    "paré": 3205,
    "ouvrit": 3206,
    "lir": 3207,
    "expri": 3208,
    "distance": 3209,
    "pensent": 3210,
    "marrant": 3211,
    "pizz": 3212,
    "couru": 3213,
    "nouvel": 3214,
    "abord": 3215,
    "rêves": 3216,
    "const": 3217,
    "détermin": 3218,
    "sauver": 3219,
    "écouté": 3220,
    "suspec": 3221,
    "théor": 3222,
    "oiseaux": 3223,
    "plaindre": 3224,
    "pratique": 3225,
    "cycle": 3226,
    "gasp": 3227,
    "alle": 3228,
    "fle": 3229,
    "Écou": 3230,
    "èvre": 3231,
    "oie": 3232,
    "alco": 3233,
    "vic": 3234,
    "oisis": 3235,
    "excuse": 3236,
    "sentez": 3237,
    "portefeuille": 3238,
    "partis": 3239,
    "contrô": 3240,
    "contrôle": 3241,
    "dro": 3242,
    "sauvé": 3243,
    "sœurs": 3244,
    "unique": 3245,
    "explication": 3246,
    "doivent": 3247,
    "salaire": 3248,
    "Europe": 3249,
    ".\"": 3250,
    "belles": 3251,
    "pin": 3252,
    "tait": 3253,
    "tap": 3254,
    "tends": 3255,
    "vôtre": 3256,
    "annon": 3257,
    "isation": 3258,
    "selon": 3259,
    "signe": 3260,
    "déf": 3261,
    "déç": 3262,
    "ouvr": 3263,
    "dus": 3264,
    "apporter": 3265,
    "monn": 3266,
    "proje": 3267,
    "exerci": 3268,
    "vraie": 3269,
    "prises": 3270,
    "connaissez": 3271,
    "matinée": 3272,
    "supplé": 3273,
    "mariés": 3274,
    "candi": 3275,
    "foule": 3276,
    "inquiet": 3277,
    "japonaise": 3278,
    "résultat": 3279,
    "résultats": 3280,
    "peinture": 3281,
    "véritable": 3282,
    "plaisanter": 3283,
    "supplément": 3284,
    "cous": 3285,
    "gal": 3286,
    "gol": 3287,
    "hie": 3288,
    "ize": 3289,
    "vidé": 3290,
    "voleur": 3291,
    "same": 3292,
    "Lequel": 3293,
    "mine": 3294,
    "soyons": 3295,
    "nique": 3296,
    "valeur": 3297,
    "soupe": 3298,
    "achète": 3299,
    "vitesse": 3300,
    "cartes": 3301,
    "intéressée": 3302,
    "mauvaises": 3303,
    "voudriez": 3304,
    "barr": 3305,
    "commandé": 3306,
    "Attends": 3307,
    "accusé": 3308,
    "commun": 3309,
    "généralement": 3310,
    "hasard": 3311,
    "mét": 3312,
    "ram": 3313,
    "pass": 3314,
    "aveu": 3315,
    "arrête": 3316,
    "menteur": 3317,
    "riches": 3318,
    "site": 3319,
    "départ": 3320,
    "assur": 3321,
    "dirais": 3322,
    "conversa": 3323,
    "alla": 3324,
    "bicycle": 3325,
    "devais": 3326,
    "discus": 3327,
    "construit": 3328,
    "quérir": 3329,
    "intéresse": 3330,
    "ordinaire": 3331,
    "matins": 3332,
    "rendit": 3333,
    "magaz": 3334,
    "cuisin": 3335,
    "capacité": 3336,
    "mérite": 3337,
    "Continu": 3338,
    "volont": 3339,
    "amoureuse": 3340,
    "règle": 3341,
    "gleterre": 3342,
    "Angleterre": 3343,
    "persua": 3344,
    "conversation": 3345,
    "bicyclette": 3346,
    "Mettez": 3347,
    "Sortez": 3348,
    "centre": 3349,
    "hur": 3350,
    "lli": 3351,
    "station": 3352,
    "tan": 3353,
    "veste": 3354,
    "zoo": 3355,
    "édu": 3356,
    "eus": 3357,
    "arran": 3358,
    "tirer": 3359,
    "parlent": 3360,
    "oires": 3361,
    "compren": 3362,
    "monté": 3363,
    "crain": 3364,
    "gea": 3365,
    "direction": 3366,
    "vaisselle": 3367,
    "péné": 3368,
    "sentie": 3369,
    "veuse": 3370,
    "connaissait": 3371,
    "occupées": 3372,
    "voisin": 3373,
    "causé": 3374,
    "camion": 3375,
    "différente": 3376,
    "appellerai": 3377,
    "prisonnier": 3378,
    "paraît": 3379,
    "impliqué": 3380,
    "difficultés": 3381,
    "attentivement": 3382,
    "gratu": 3383,
    "théorie": 3384,
    "monnaie": 3385,
    "golf": 3386,
    "bor": 3387,
    "beur": 3388,
    "mène": 3389,
    "tante": 3390,
    "espa": 3391,
    "reur": 3392,
    "prouver": 3393,
    "diez": 3394,
    "toucher": 3395,
    "combat": 3396,
    "révé": 3397,
    "accompli": 3398,
    "exemp": 3399,
    "vert": 3400,
    "venait": 3401,
    "cacher": 3402,
    "oto": 3403,
    "vues": 3404,
    "tenté": 3405,
    "bouche": 3406,
    "tribu": 3407,
    "meilleurs": 3408,
    "pousser": 3409,
    "campagne": 3410,
    "différentes": 3411,
    "titude": 3412,
    "horrible": 3413,
    "raté": 3414,
    "délici": 3415,
    "Ferme": 3416,
    "piscine": 3417,
    "biscu": 3418,
    "informations": 3419,
    "Fu": 3420,
    "ient": 3421,
    "ral": 3422,
    "van": 3423,
    "île": 3424,
    "œu": 3425,
    "refaire": 3426,
    "quet": 3427,
    "dépour": 3428,
    "décédé": 3429,
    "gentille": 3430,
    "soula": 3431,
    "formu": 3432,
    "veuilles": 3433,
    "occupe": 3434,
    "sortit": 3435,
    "conduis": 3436,
    "passeport": 3437,
    "films": 3438,
    "cancer": 3439,
    "Attendez": 3440,
    "Ouvre": 3441,
    "dommage": 3442,
    "scienti": 3443,
    "électri": 3444,
    "grave": 3445,
    "timide": 3446,
    "siège": 3447,
    "débarrasser": 3448,
    "Kyoto": 3449,
    "allemand": 3450,
    "exercice": 3451,
    "samedi": 3452,
    "?\"": 3453,
    "Deux": 3454,
    "fâ": 3455,
    "kil": 3456,
    "ls": 3457,
    "spec": 3458,
    "ève": 3459,
    "quant": 3460,
    "trai": 3461,
    "tienne": 3462,
    "mention": 3463,
    "alliez": 3464,
    "réalité": 3465,
    "urgent": 3466,
    "ack": 3467,
    "action": 3468,
    "cue": 3469,
    "devint": 3470,
    "cations": 3471,
    "ités": 3472,
    "fermée": 3473,
    "apprécier": 3474,
    "fume": 3475,
    "tourner": 3476,
    "derniers": 3477,
    "envoyer": 3478,
    "abandonné": 3479,
    "vivant": 3480,
    "épouse": 3481,
    "répéter": 3482,
    "circulation": 3483,
    "Sans": 3484,
    "Sors": 3485,
    "Vois": 3486,
    "cat": 3487,
    "ul": 3488,
    "chu": 3489,
    "ours": 3490,
    "ilier": 3491,
    "orig": 3492,
    "parie": 3493,
    "déses": 3494,
    "rentre": 3495,
    "chiez": 3496,
    "fortu": 3497,
    "connaisse": 3498,
    "allées": 3499,
    "gnez": 3500,
    "pièces": 3501,
    "présente": 3502,
    "magni": 3503,
    "tombe": 3504,
    "canadi": 3505,
    "ennuyeux": 3506,
    "tota": 3507,
    "fassiez": 3508,
    "disposons": 3509,
    "indiquer": 3510,
    "disputer": 3511,
    "Montrez": 3512,
    "skier": 3513,
    "démarrer": 3514,
    "ticket": 3515,
    "idiote": 3516,
    "aî": 3517,
    "ace": 3518,
    "maire": 3519,
    "vait": 3520,
    "énor": 3521,
    "ût": 3522,
    "lave": 3523,
    "mecs": 3524,
    "incapable": 3525,
    "peindre": 3526,
    "cusez": 3527,
    "gement": 3528,
    "ration": 3529,
    "tenue": 3530,
    "gars": 3531,
    "donn": 3532,
    "péri": 3533,
    "sentis": 3534,
    "froi": 3535,
    "poche": 3536,
    "aiderai": 3537,
    "tenta": 3538,
    "sauter": 3539,
    "boisson": 3540,
    "pierre": 3541,
    "milieu": 3542,
    "notes": 3543,
    "folle": 3544,
    "conscient": 3545,
    "mignon": 3546,
    "population": 3547,
    "détails": 3548,
    "dingue": 3549,
    "imagination": 3550,
    "principa": 3551,
    "soldats": 3552,
    "égard": 3553,
    "discussion": 3554,
    "Dès": 3555,
    "Nos": 3556,
    "boit": 3557,
    "ich": 3558,
    "nat": 3559,
    "vendu": 3560,
    "èle": 3561,
    "élu": 3562,
    "éloi": 3563,
    "nelle": 3564,
    "teaux": 3565,
    "istre": 3566,
    "lade": 3567,
    "chacun": 3568,
    "parlons": 3569,
    "songé": 3570,
    "descend": 3571,
    "agir": 3572,
    "sale": 3573,
    "vra": 3574,
    "perd": 3575,
    "maisons": 3576,
    "bonheur": 3577,
    "marre": 3578,
    "fix": 3579,
    "veuille": 3580,
    "pressé": 3581,
    "obs": 3582,
    "blesser": 3583,
    "intérê": 3584,
    "primé": 3585,
    "faible": 3586,
    "arrivés": 3587,
    "devenue": 3588,
    "décida": 3589,
    "imaginé": 3590,
    "jume": 3591,
    "Appelle": 3592,
    "rumeur": 3593,
    "donnez": 3594,
    "habit": 3595,
    "traiter": 3596,
    "ayons": 3597,
    "crédit": 3598,
    "infir": 3599,
    "baseball": 3600,
    "navire": 3601,
    "merveilleux": 3602,
    "emporter": 3603,
    "costume": 3604,
    "alcool": 3605,
    "Di": 3606,
    "Moi": 3607,
    "pais": 3608,
    "sand": 3609,
    "éclair": 3610,
    "esses": 3611,
    "devient": 3612,
    "ouse": 3613,
    "dément": 3614,
    "asuni": 3615,
    "convient": 3616,
    "conclu": 3617,
    "libat": 3618,
    "terri": 3619,
    "saches": 3620,
    "Commen": 3621,
    "disait": 3622,
    "dispon": 3623,
    "caché": 3624,
    "péti": 3625,
    "chanc": 3626,
    "course": 3627,
    "fron": 3628,
    "célibat": 3629,
    "ponctu": 3630,
    "Demain": 3631,
    "arrêta": 3632,
    "certains": 3633,
    "naï": 3634,
    "policier": 3635,
    "feuilles": 3636,
    "tourne": 3637,
    "offens": 3638,
    "fenêtres": 3639,
    "faudra": 3640,
    "coûter": 3641,
    "obligée": 3642,
    "signifi": 3643,
    "normal": 3644,
    "Aucune": 3645,
    "docu": 3646,
    "vendredi": 3647,
    "mignonne": 3648,
    "confectionné": 3649,
    "efforts": 3650,
    "sitôt": 3651,
    "éveillé": 3652,
    "pizza": 3653,
    "tandis": 3654,
    "ales": 3655,
    "fli": 3656,
    "nagé": 3657,
    "olo": 3658,
    "paie": 3659,
    "roi": 3660,
    "yens": 3661,
    "ences": 3662,
    "demi": 3663,
    "tidi": 3664,
    "régi": 3665,
    "posa": 3666,
    "donnée": 3667,
    "lèrent": 3668,
    "gnes": 3669,
    "enfance": 3670,
    "adoles": 3671,
    "petits": 3672,
    "failli": 3673,
    "déjeuné": 3674,
    "pleuré": 3675,
    "continué": 3676,
    "fonctionner": 3677,
    "meurtre": 3678,
    "trompé": 3679,
    "retirer": 3680,
    "doigt": 3681,
    "atteint": 3682,
    "nettoy": 3683,
    "échapper": 3684,
    "Trouv": 3685,
    "objectif": 3686,
    "assurance": 3687,
    "Can": 3688,
    "Mal": 3689,
    "ajou": 3690,
    "ivre": 3691,
    "ka": 3692,
    "pne": 3693,
    "sors": 3694,
    "quo": 3695,
    "entré": 3696,
    "cemment": 3697,
    "las": 3698,
    "aurions": 3699,
    "sine": 3700,
    "dée": 3701,
    "liers": 3702,
    "réveiller": 3703,
    "laissa": 3704,
    "toit": 3705,
    "jambes": 3706,
    "veniez": 3707,
    "opé": 3708,
    "gentilles": 3709,
    "ock": 3710,
    "courag": 3711,
    "restée": 3712,
    "matiques": 3713,
    "rencontrée": 3714,
    "viendrait": 3715,
    "semblant": 3716,
    "voulaient": 3717,
    "étrangers": 3718,
    "charger": 3719,
    "sommet": 3720,
    "tacle": 3721,
    "atteindre": 3722,
    "silence": 3723,
    "Excusez": 3724,
    "quinze": 3725,
    "appuy": 3726,
    "Demande": 3727,
    "biscuits": 3728,
    "Alle": 3729,
    "Tiens": 3730,
    "bran": 3731,
    "mons": 3732,
    "nag": 3733,
    "noy": 3734,
    "saviez": 3735,
    "éprouv": 3736,
    "enqu": 3737,
    "reç": 3738,
    "remis": 3739,
    "qués": 3740,
    "passion": 3741,
    "sement": 3742,
    "chère": 3743,
    "tue": 3744,
    "uns": 3745,
    "éton": 3746,
    "line": 3747,
    "comprenez": 3748,
    "usage": 3749,
    "permet": 3750,
    "ffre": 3751,
    "excité": 3752,
    "pul": 3753,
    "arriva": 3754,
    "coupé": 3755,
    "cherches": 3756,
    "sentais": 3757,
    "cercle": 3758,
    "brisé": 3759,
    "dentiste": 3760,
    "corri": 3761,
    "compét": 3762,
    "assit": 3763,
    "assise": 3764,
    "expliqué": 3765,
    "soif": 3766,
    "profondément": 3767,
    "grimp": 3768,
    "génial": 3769,
    "démissionner": 3770,
    "clairement": 3771,
    "violon": 3772,
    "programme": 3773,
    "éviter": 3774,
    "projets": 3775,
    "vidéo": 3776,
    "fortune": 3777,
    "sandw": 3778,
    "quotidi": 3779,
    "Terre": 3780,
    "ciles": 3781,
    "fraî": 3782,
    "ident": 3783,
    "sc": 3784,
    "êt": 3785,
    "ïs": 3786,
    "leva": 3787,
    "secr": 3788,
    "chés": 3789,
    "onses": 3790,
    "confor": 3791,
    "aper": 3792,
    "all": 3793,
    "salu": 3794,
    "Celui": 3795,
    "préh": 3796,
    "distin": 3797,
    "courut": 3798,
    "couramment": 3799,
    "personnel": 3800,
    "critique": 3801,
    "contrat": 3802,
    "raisonn": 3803,
    "natif": 3804,
    "fatigués": 3805,
    "données": 3806,
    "Parlez": 3807,
    "Choisis": 3808,
    "neiger": 3809,
    "syst": 3810,
    "Était": 3811,
    "horreur": 3812,
    "changement": 3813,
    "artiste": 3814,
    "viennes": 3815,
    "réponses": 3816,
    "effrayé": 3817,
    "Fermez": 3818,
    "Connaissez": 3819,
    "comportement": 3820,
    "exemple": 3821,
    "régime": 3822,
    "Non": 3823,
    "Ver": 3824,
    "cassée": 3825,
    "gre": 3826,
    "oli": 3827,
    "rus": 3828,
    "sen": 3829,
    "âtre": 3830,
    "écu": 3831,
    "quante": 3832,
    "prim": 3833,
    "armes": 3834,
    "armée": 3835,
    "touche": 3836,
    "ures": 3837,
    "manu": 3838,
    "volon": 3839,
    "survenu": 3840,
    "toilettes": 3841,
    "nég": 3842,
    "négo": 3843,
    "guère": 3844,
    "chanteur": 3845,
    "bru": 3846,
    "bros": 3847,
    "grès": 3848,
    "oreille": 3849,
    "bouger": 3850,
    "détendre": 3851,
    "Japonais": 3852,
    "pareille": 3853,
    "mathé": 3854,
    "refusa": 3855,
    "poissons": 3856,
    "traversé": 3857,
    "000": 3858,
    "général": 3859,
    "intelligente": 3860,
    "compliqué": 3861,
    "particuli": 3862,
    "amélior": 3863,
    "jaloux": 3864,
    "caisse": 3865,
    "intérêt": 3866,
    "système": 3867,
    "Se": 3868,
    "Sou": 3869,
    "Voyons": 3870,
    "fe": 3871,
    "ième": 3872,
    "jeux": 3873,
    "pez": 3874,
    "puni": 3875,
    "toires": 3876,
    "xim": 3877,
    "rela": 3878,
    "ong": 3879,
    "entier": 3880,
    "châ": 3881,
    "tun": 3882,
    "mec": 3883,
    "ara": 3884,
    "timbres": 3885,
    "allon": 3886,
    "agère": 3887,
    "lés": 3888,
    "tempéra": 3889,
    "els": 3890,
    "laisserai": 3891,
    "excit": 3892,
    "disposer": 3893,
    "nerveuse": 3894,
    "cache": 3895,
    "puissions": 3896,
    "plans": 3897,
    "addition": 3898,
    "cord": 3899,
    "oreilles": 3900,
    "amitié": 3901,
    "consom": 3902,
    "précipit": 3903,
    "garer": 3904,
    "traî": 3905,
    "découvrir": 3906,
    "écris": 3907,
    "Arri": 3908,
    "affec": 3909,
    "terminée": 3910,
    "profession": 3911,
    "capables": 3912,
    "sembla": 3913,
    "chausse": 3914,
    "rendue": 3915,
    "traité": 3916,
    "reconnaissante": 3917,
    "pantal": 3918,
    "supermarché": 3919,
    "suggé": 3920,
    "espérais": 3921,
    "institutrice": 3922,
    "ancien": 3923,
    "Crois": 3924,
    "Aimeriez": 3925,
    "fantô": 3926,
    "emmener": 3927,
    "collection": 3928,
    "contrôler": 3929,
    "cueil": 3930,
    "désespé": 3931,
    "magnifique": 3932,
    "préhen": 3933,
    "mathématiques": 3934,
    "Tenez": 3935,
    "blâ": 3936,
    "id": 3937,
    "ica": 3938,
    "jau": 3939,
    "âce": 3940,
    "reposer": 3941,
    "oiff": 3942,
    "tex": 3943,
    "estom": 3944,
    "membre": 3945,
    "parvenir": 3946,
    "ridi": 3947,
    "jeté": 3948,
    "dépensé": 3949,
    "dul": 3950,
    "approche": 3951,
    "récemment": 3952,
    "mondi": 3953,
    "manges": 3954,
    "procu": 3955,
    "chement": 3956,
    "raisons": 3957,
    "disposé": 3958,
    "rable": 3959,
    "pouviez": 3960,
    "partit": 3961,
    "cesse": 3962,
    "pétr": 3963,
    "improbable": 3964,
    "ferions": 3965,
    "fièvre": 3966,
    "sortes": 3967,
    "achè": 3968,
    "malheureux": 3969,
    "essayez": 3970,
    "ignorer": 3971,
    "locu": 3972,
    "resterai": 3973,
    "prêté": 3974,
    "ordres": 3975,
    "chanté": 3976,
    "Parfois": 3977,
    "rompu": 3978,
    "enseignante": 3979,
    "invitation": 3980,
    "traduire": 3981,
    "haute": 3982,
    "étrangère": 3983,
    "accompagner": 3984,
    "innocent": 3985,
    "épaule": 3986,
    "totalement": 3987,
    "sandwich": 3988,
    "Jam": 3989,
    "Passe": 3990,
    "couver": 3991,
    "gê": 3992,
    "gest": 3993,
    "gren": 3994,
    "mous": 3995,
    "odeur": 3996,
    "pot": 3997,
    "aimais": 3998,
    "envis": 3999,
    "reli": 4000,
    "telles": 4001,
    "membres": 4002,
    "tives": 4003,
    "ordre": 4004,
    "cien": 4005,
    "déprimé": 4006,
    "copain": 4007,
    "nés": 4008,
    "garage": 4009,
    "beaux": 4010,
    "justi": 4011,
    "abe": 4012,
    "joueur": 4013,
    "poème": 4014,
    "retar": 4015,
    "restes": 4016,
    "noms": 4017,
    "étude": 4018,
    "constru": 4019,
    "supporte": 4020,
    "apprécierais": 4021,
    "promesses": 4022,
    "lard": 4023,
    "voudrait": 4024,
    "prenons": 4025,
    "barbe": 4026,
    "prudents": 4027,
    "amené": 4028,
    "amener": 4029,
    "journaux": 4030,
    "essence": 4031,
    "dérangé": 4032,
    "souffre": 4033,
    "promener": 4034,
    "difficiles": 4035,
    "sinc": 4036,
    "club": 4037,
    "aliments": 4038,
    "populaire": 4039,
    "explo": 4040,
    "Aimerais": 4041,
    "opération": 4042,
    "ouvrage": 4043,
    "infirmière": 4044,
    "température": 4045,
    "Jamais": 4046,
    "Jack": 4047,
    "Ret": 4048,
    "adul": 4049,
    "couvert": 4050,
    "foi": 4051,
    "eng": 4052,
    "engag": 4053,
    "lec": 4054,
    "passa": 4055,
    "aurons": 4056,
    "chait": 4057,
    "avan": 4058,
    "tiend": 4059,
    "inutile": 4060,
    "parais": 4061,
    "dépêcher": 4062,
    "confé": 4063,
    "condition": 4064,
    "propri": 4065,
    "perdit": 4066,
    "versé": 4067,
    "tenez": 4068,
    "arrivent": 4069,
    "gueu": 4070,
    "immeu": 4071,
    "courrier": 4072,
    "travaillent": 4073,
    "aimeriez": 4074,
    "Quelques": 4075,
    "adop": 4076,
    "resta": 4077,
    "usement": 4078,
    "suivant": 4079,
    "écrivain": 4080,
    "histoires": 4081,
    "utilise": 4082,
    "nourrir": 4083,
    "souris": 4084,
    "suffit": 4085,
    "blessés": 4086,
    "reusement": 4087,
    "souhaiterais": 4088,
    "Gardez": 4089,
    "contrarié": 4090,
    "million": 4091,
    "magazine": 4092,
    "spectacle": 4093,
    "flics": 4094,
    "quotidienne": 4095,
    "Su": 4096,
    "ak": 4097,
    "câ": 4098,
    "dam": 4099,
    "fous": 4100,
    "flé": 4101,
    "loyer": 4102,
    "my": 4103,
    "pus": 4104,
    "rac": 4105,
    "rure": 4106,
    "tis": 4107,
    "uves": 4108,
    "Étiez": 4109,
    "équ": 4110,
    "sub": 4111,
    "tière": 4112,
    "insul": 4113,
    "dépê": 4114,
    "approuv": 4115,
    "allions": 4116,
    "viré": 4117,
    "mangent": 4118,
    "mangez": 4119,
    "proxim": 4120,
    "sable": 4121,
    "mières": 4122,
    "laissée": 4123,
    "exis": 4124,
    "souper": 4125,
    "puissiez": 4126,
    "plantes": 4127,
    "admi": 4128,
    "petites": 4129,
    "partager": 4130,
    "ignit": 4131,
    "obser": 4132,
    "loge": 4133,
    "suppli": 4134,
    "cinquante": 4135,
    "gaz": 4136,
    "futur": 4137,
    "minuit": 4138,
    "moteur": 4139,
    "magne": 4140,
    "heureusement": 4141,
    "patience": 4142,
    "offert": 4143,
    "Chacun": 4144,
    "servir": 4145,
    "essai": 4146,
    "commande": 4147,
    "fourn": 4148,
    "ravie": 4149,
    "animal": 4150,
    "Oui": 4151,
    "aimons": 4152,
    "correct": 4153,
    "respect": 4154,
    "favor": 4155,
    "échappé": 4156,
    "embau": 4157,
    "planté": 4158,
    "tremblement": 4159,
    "exprimer": 4160,
    "suspect": 4161,
    "déçue": 4162,
    "aveugle": 4163,
    "beurre": 4164,
    "estomac": 4165,
    "Jackson": 4166,
    "proximité": 4167,
    "Leur": 4168,
    "Pa": 4169,
    "Prom": 4170,
    "Tour": 4171,
    "aque": 4172,
    "fleur": 4173,
    "gor": 4174,
    "ieur": 4175,
    "pir": 4176,
    "élève": 4177,
    "quanti": 4178,
    "tec": 4179,
    "chons": 4180,
    "parmi": 4181,
    "lune": 4182,
    "étagère": 4183,
    "consul": 4184,
    "liqui": 4185,
    "toile": 4186,
    "verti": 4187,
    "gardé": 4188,
    "pouvions": 4189,
    "image": 4190,
    "gnée": 4191,
    "longs": 4192,
    "Entre": 4193,
    "entendue": 4194,
    "tomba": 4195,
    "dame": 4196,
    "conduite": 4197,
    "proches": 4198,
    "furi": 4199,
    "héros": 4200,
    "rencontrées": 4201,
    "présenté": 4202,
    "retourne": 4203,
    "assistance": 4204,
    "Cessez": 4205,
    "suffisant": 4206,
    "croyais": 4207,
    "Toute": 4208,
    "éteint": 4209,
    "Oubli": 4210,
    "joli": 4211,
    "énervé": 4212,
    "inviter": 4213,
    "augmentation": 4214,
    "dérangerait": 4215,
    "curieux": 4216,
    "capitale": 4217,
    "élég": 4218,
    "impatiente": 4219,
    "concentrer": 4220,
    "volontaire": 4221,
    "éducation": 4222,
    "célibataire": 4223,
    "Allemagne": 4224,
    "explosion": 4225,
    "Bon": 4226,
    "Mais": 4227,
    "Passez": 4228,
    "um": 4229,
    "veau": 4230,
    "épar": 4231,
    "écar": 4232,
    "îtr": 4233,
    "quarti": 4234,
    "quette": 4235,
    "passait": 4236,
    "isme": 4237,
    "auquel": 4238,
    "ili": 4239,
    "pardonner": 4240,
    "lut": 4241,
    "sonné": 4242,
    "ouvri": 4243,
    "apprends": 4244,
    "dessous": 4245,
    "agi": 4246,
    "montra": 4247,
    "bile": 4248,
    "ressens": 4249,
    "terme": 4250,
    "terie": 4251,
    "coffre": 4252,
    "acquérir": 4253,
    "sépar": 4254,
    "présence": 4255,
    "cris": 4256,
    "exper": 4257,
    "portent": 4258,
    "rende": 4259,
    "vieilles": 4260,
    "fiée": 4261,
    "ards": 4262,
    "visité": 4263,
    "veuillez": 4264,
    "céré": 4265,
    "conseille": 4266,
    "musi": 4267,
    "Parle": 4268,
    "battu": 4269,
    "mortes": 4270,
    "certaines": 4271,
    "résis": 4272,
    "environs": 4273,
    "aliment": 4274,
    "enseigné": 4275,
    "tiroir": 4276,
    "entraîne": 4277,
    "difficulté": 4278,
    "soudaine": 4279,
    "rembour": 4280,
    "Jusqu": 4281,
    "raisonnable": 4282,
    "pantalon": 4283,
    "icace": 4284,
    "Ac": 4285,
    "Hé": 4286,
    "Heu": 4287,
    "Sel": 4288,
    "bête": 4289,
    "fla": 4290,
    "gts": 4291,
    "émo": 4292,
    "épais": 4293,
    "reviens": 4294,
    "remonter": 4295,
    "papa": 4296,
    "oisi": 4297,
    "omage": 4298,
    "isa": 4299,
    "cein": 4300,
    "lavé": 4301,
    "auprès": 4302,
    "chette": 4303,
    "subi": 4304,
    "tiers": 4305,
    "treize": 4306,
    "lumières": 4307,
    "éta": 4308,
    "jeta": 4309,
    "dérob": 4310,
    "monte": 4311,
    "léger": 4312,
    "volu": 4313,
    "tées": 4314,
    "pelez": 4315,
    "rante": 4316,
    "saison": 4317,
    "coups": 4318,
    "ottes": 4319,
    "session": 4320,
    "vase": 4321,
    "demandez": 4322,
    "chances": 4323,
    "embr": 4324,
    "fian": 4325,
    "fromage": 4326,
    "mises": 4327,
    "Asse": 4328,
    "connaissais": 4329,
    "Devrais": 4330,
    "efficace": 4331,
    "rendrai": 4332,
    "amusée": 4333,
    "ailleurs": 4334,
    "discuté": 4335,
    "hique": 4336,
    "prudentes": 4337,
    "banc": 4338,
    "vivons": 4339,
    "réveillée": 4340,
    "plaint": 4341,
    "bague": 4342,
    "invitée": 4343,
    "contacter": 4344,
    "navi": 4345,
    "manif": 4346,
    "participer": 4347,
    "saoul": 4348,
    "étoiles": 4349,
    "passager": 4350,
    "énorme": 4351,
    "achèter": 4352,
    "Retour": 4353,
    "Selon": 4354,
    "50": 4355,
    "Ita": 4356,
    "bra": 4357,
    "coiff": 4358,
    "iques": 4359,
    "meurs": 4360,
    "ption": 4361,
    "rose": 4362,
    "sai": 4363,
    "enreg": 4364,
    "retrouver": 4365,
    "queue": 4366,
    "auraient": 4367,
    "illard": 4368,
    "parfaite": 4369,
    "étaire": 4370,
    "rigo": 4371,
    "sive": 4372,
    "ascens": 4373,
    "mpe": 4374,
    "compréhen": 4375,
    "récu": 4376,
    "monie": 4377,
    "irons": 4378,
    "bienvenue": 4379,
    "mite": 4380,
    "mér": 4381,
    "poster": 4382,
    "oppor": 4383,
    "trouva": 4384,
    "cesser": 4385,
    "sentait": 4386,
    "chand": 4387,
    "plat": 4388,
    "rentrée": 4389,
    "phar": 4390,
    "admir": 4391,
    "poches": 4392,
    "forêt": 4393,
    "crivez": 4394,
    "instruc": 4395,
    "logique": 4396,
    "conser": 4397,
    "appelez": 4398,
    "répondit": 4399,
    "dernières": 4400,
    "fondu": 4401,
    "effet": 4402,
    "mode": 4403,
    "attendait": 4404,
    "chatte": 4405,
    "nourris": 4406,
    "écras": 4407,
    "fiers": 4408,
    "Disposez": 4409,
    "quali": 4410,
    "Cesse": 4411,
    "coûté": 4412,
    "mordu": 4413,
    "serviette": 4414,
    "satisfaite": 4415,
    "poupée": 4416,
    "apparence": 4417,
    "connue": 4418,
    "réfléchis": 4419,
    "frapper": 4420,
    "souffle": 4421,
    "réalisé": 4422,
    "rater": 4423,
    "communi": 4424,
    "recommandé": 4425,
    "Croyez": 4426,
    "tendance": 4427,
    "escaliers": 4428,
    "hyp": 4429,
    "regretter": 4430,
    "diplômé": 4431,
    "cuisinier": 4432,
    "chanceuse": 4433,
    "chaussettes": 4434,
    "immeuble": 4435,
    "13": 4436,
    "Lui": 4437,
    "Plu": 4438,
    "Sommes": 4439,
    "cés": 4440,
    "casse": 4441,
    "dors": 4442,
    "laient": 4443,
    "maman": 4444,
    "nci": 4445,
    "pom": 4446,
    "sain": 4447,
    "vaux": 4448,
    "épi": 4449,
    "ïnci": 4450,
    "rejoindre": 4451,
    "quar": 4452,
    "quez": 4453,
    "aisé": 4454,
    "isent": 4455,
    "seau": 4456,
    "chè": 4457,
    "chon": 4458,
    "intro": 4459,
    "parlait": 4460,
    "décri": 4461,
    "progrès": 4462,
    "coïnci": 4463,
    "quels": 4464,
    "crème": 4465,
    "disiez": 4466,
    "cale": 4467,
    "beauté": 4468,
    "trouves": 4469,
    "sentit": 4470,
    "enfu": 4471,
    "fiques": 4472,
    "commettre": 4473,
    "puisses": 4474,
    "menac": 4475,
    "complet": 4476,
    "preuves": 4477,
    "regardes": 4478,
    "colline": 4479,
    "points": 4480,
    "utilisé": 4481,
    "théâtre": 4482,
    "blessées": 4483,
    "culture": 4484,
    "différents": 4485,
    "allumé": 4486,
    "Apporte": 4487,
    "Étais": 4488,
    "rappelles": 4489,
    "poule": 4490,
    "ordinateurs": 4491,
    "réfléchi": 4492,
    "entendit": 4493,
    "créa": 4494,
    "honnêteté": 4495,
    "considéré": 4496,
    "sympat": 4497,
    "congés": 4498,
    "descendre": 4499,
    "examens": 4500,
    "lourd": 4501,
    "métho": 4502,
    "conférence": 4503,
    "ceinture": 4504,
    "opportun": 4505,
    "100": 4506,
    "Osa": 4507,
    "Père": 4508,
    "alar": 4509,
    "bom": 4510,
    "cles": 4511,
    "dèle": 4512,
    "gos": 4513,
    "mait": 4514,
    "roses": 4515,
    "rôle": 4516,
    "sh": 4517,
    "xante": 4518,
    "onze": 4519,
    "demeu": 4520,
    "ana": 4521,
    "ome": 4522,
    "ave": 4523,
    "tie": 4524,
    "inv": 4525,
    "ries": 4526,
    "sign": 4527,
    "déce": 4528,
    "commerci": 4529,
    "restez": 4530,
    "bleue": 4531,
    "sachiez": 4532,
    "eaux": 4533,
    "prénom": 4534,
    "deviner": 4535,
    "nuages": 4536,
    "trouvée": 4537,
    "embarras": 4538,
    "absence": 4539,
    "ada": 4540,
    "française": 4541,
    "étudiante": 4542,
    "pleure": 4543,
    "oublierai": 4544,
    "apprécient": 4545,
    "douz": 4546,
    "fumée": 4547,
    "familier": 4548,
    "dîné": 4549,
    "souri": 4550,
    "fautes": 4551,
    "risques": 4552,
    "inquiéter": 4553,
    "chargé": 4554,
    "informé": 4555,
    "rappelez": 4556,
    "habillé": 4557,
    "préfères": 4558,
    "louer": 4559,
    "loupé": 4560,
    "web": 4561,
    "vivants": 4562,
    "frappa": 4563,
    "emprunté": 4564,
    "norma": 4565,
    "rempli": 4566,
    "facture": 4567,
    "égal": 4568,
    "médicaments": 4569,
    "économie": 4570,
    "berté": 4571,
    "employé": 4572,
    "ambiti": 4573,
    "évident": 4574,
    "dirige": 4575,
    "soudain": 4576,
    "persuader": 4577,
    "pénétre": 4578,
    "électricité": 4579,
    "disponible": 4580,
    "Malheureusement": 4581,
    "ajouter": 4582,
    "négoci": 4583,
    "quartier": 4584,
    "Osaka": 4585,
    "Faire": 4586,
    "Pres": 4587,
    "ane": 4588,
    "faus": 4589,
    "loc": 4590,
    "sta": 4591,
    "tas": 4592,
    "vons": 4593,
    "zon": 4594,
    "Éte": 4595,
    "éva": 4596,
    "remise": 4597,
    "rejoin": 4598,
    "tech": 4599,
    "cez": 4600,
    "prenne": 4601,
    "orange": 4602,
    "parte": 4603,
    "parlais": 4604,
    "parvenu": 4605,
    "paress": 4606,
    "cigare": 4607,
    "conne": 4608,
    "ambu": 4609,
    "duis": 4610,
    "touché": 4611,
    "agent": 4612,
    "voté": 4613,
    "serp": 4614,
    "quelles": 4615,
    "crise": 4616,
    "tache": 4617,
    "mérit": 4618,
    "Espé": 4619,
    "possé": 4620,
    "niez": 4621,
    "océ": 4622,
    "ferma": 4623,
    "fich": 4624,
    "deuxième": 4625,
    "fabri": 4626,
    "abat": 4627,
    "joues": 4628,
    "jouait": 4629,
    "rêver": 4630,
    "malin": 4631,
    "déton": 4632,
    "irez": 4633,
    "fatiguées": 4634,
    "produise": 4635,
    "attendrai": 4636,
    "mirac": 4637,
    "Parlons": 4638,
    "sources": 4639,
    "valises": 4640,
    "fonctionné": 4641,
    "Appelez": 4642,
    "charge": 4643,
    "vivait": 4644,
    "Avant": 4645,
    "respecter": 4646,
    "blanche": 4647,
    "naissance": 4648,
    "annulé": 4649,
    "ski": 4650,
    "tarte": 4651,
    "licenci": 4652,
    "Seriez": 4653,
    "herbe": 4654,
    "automne": 4655,
    "hurler": 4656,
    "prisonniers": 4657,
    "scientifique": 4658,
    "froide": 4659,
    "gentillesse": 4660,
    "enquête": 4661,
    "château": 4662,
    "quotidiennement": 4663,
    "Italie": 4664,
    "ascenseur": 4665,
    "récupé": 4666,
    "paresseux": 4667,
    "Du": 4668,
    "Fin": 4669,
    "cins": 4670,
    "dons": 4671,
    "drai": 4672,
    "firent": 4673,
    "honne": 4674,
    "lance": 4675,
    "mété": 4676,
    "sis": 4677,
    "vag": 4678,
    "villes": 4679,
    "Écrivez": 4680,
    "ètres": 4681,
    "évan": 4682,
    "ôtres": 4683,
    "relation": 4684,
    "recevoir": 4685,
    "demie": 4686,
    "nette": 4687,
    "entra": 4688,
    "unes": 4689,
    "sienne": 4690,
    "endant": 4691,
    "dég": 4692,
    "dic": 4693,
    "limite": 4694,
    "albu": 4695,
    "rédi": 4696,
    "légère": 4697,
    "copie": 4698,
    "minel": 4699,
    "crit": 4700,
    "Laquelle": 4701,
    "distribu": 4702,
    "véhi": 4703,
    "gueur": 4704,
    "possession": 4705,
    "cherché": 4706,
    "cessé": 4707,
    "génie": 4708,
    "feras": 4709,
    "courte": 4710,
    "embarr": 4711,
    "phy": 4712,
    "plaign": 4713,
    "endue": 4714,
    "études": 4715,
    "criminel": 4716,
    "contri": 4717,
    "anges": 4718,
    "habituer": 4719,
    "viendras": 4720,
    "clef": 4721,
    "photograp": 4722,
    "quitte": 4723,
    "médecins": 4724,
    "gies": 4725,
    "mourut": 4726,
    "Cher": 4727,
    "produits": 4728,
    "poulet": 4729,
    "fassions": 4730,
    "épousé": 4731,
    "choqué": 4732,
    "tivement": 4733,
    "chirur": 4734,
    "plainte": 4735,
    "correcte": 4736,
    "Améric": 4737,
    "réaliser": 4738,
    "brouillard": 4739,
    "désire": 4740,
    "annuler": 4741,
    "hauteur": 4742,
    "directement": 4743,
    "améliorer": 4744,
    "chauffeur": 4745,
    "régler": 4746,
    "capitaine": 4747,
    "candid": 4748,
    "supplémentaire": 4749,
    "pneu": 4750,
    "lecture": 4751,
    "consulter": 4752,
    "liquide": 4753,
    "chandail": 4754,
    "album": 4755,
    "Ceux": 4756,
    "bol": 4757,
    "fûmes": 4758,
    "ji": 4759,
    "th": 4760,
    "tais": 4761,
    "tâche": 4762,
    "vê": 4763,
    "aima": 4764,
    "repro": 4765,
    "patr": 4766,
    "ané": 4767,
    "auteur": 4768,
    "troisi": 4769,
    "ingéni": 4770,
    "défi": 4771,
    "défaut": 4772,
    "dévelop": 4773,
    "lien": 4774,
    "dessin": 4775,
    "rési": 4776,
    "terr": 4777,
    "salade": 4778,
    "acti": 4779,
    "coupe": 4780,
    "chevaux": 4781,
    "croi": 4782,
    "craign": 4783,
    "venant": 4784,
    "vation": 4785,
    "voient": 4786,
    "file": 4787,
    "figu": 4788,
    "impôt": 4789,
    "forcer": 4790,
    "connaissent": 4791,
    "partage": 4792,
    "céder": 4793,
    "souvi": 4794,
    "contrac": 4795,
    "consid": 4796,
    "appelée": 4797,
    "gale": 4798,
    "conduc": 4799,
    "habituée": 4800,
    "meilleures": 4801,
    "prenant": 4802,
    "accidents": 4803,
    "cambri": 4804,
    "tifs": 4805,
    "importantes": 4806,
    "Apportez": 4807,
    "soixante": 4808,
    "horloge": 4809,
    "refuser": 4810,
    "censée": 4811,
    "espion": 4812,
    "Desc": 4813,
    "Lorsqu": 4814,
    "suggest": 4815,
    "raconté": 4816,
    "doigts": 4817,
    "confir": 4818,
    "doté": 4819,
    "baiser": 4820,
    "clients": 4821,
    "Désolée": 4822,
    "billets": 4823,
    "mensonges": 4824,
    "contrariée": 4825,
    "manières": 4826,
    "Inter": 4827,
    "demandais": 4828,
    "sieds": 4829,
    "déménagé": 4830,
    "possibilités": 4831,
    "remède": 4832,
    "constamment": 4833,
    "formulaire": 4834,
    "document": 4835,
    "particulièrement": 4836,
    "mondiale": 4837,
    "quantité": 4838,
    "coïncidence": 4839,
    "pénétrer": 4840,
    "Espérons": 4841,
    "troisième": 4842,
    "cambrio": 4843,
    "..": 4844,
    "Pendant": 4845,
    "ateur": 4846,
    "basse": 4847,
    "drap": 4848,
    "gres": 4849,
    "peau": 4850,
    "sages": 4851,
    "savaient": 4852,
    "âgée": 4853,
    "reuses": 4854,
    "lex": 4855,
    "leçon": 4856,
    "qualité": 4857,
    "pag": 4858,
    "isées": 4859,
    "lable": 4860,
    "choir": 4861,
    "menteuse": 4862,
    "parla": 4863,
    "étoff": 4864,
    "sif": 4865,
    "sier": 4866,
    "sieste": 4867,
    "simil": 4868,
    "démo": 4869,
    "déprim": 4870,
    "liberté": 4871,
    "durer": 4872,
    "apprend": 4873,
    "viol": 4874,
    "répu": 4875,
    "réparé": 4876,
    "attendez": 4877,
    "vole": 4878,
    "maj": 4879,
    "accueil": 4880,
    "coutu": 4881,
    "perds": 4882,
    "prévenu": 4883,
    "laisses": 4884,
    "exception": 4885,
    "dissi": 4886,
    "méchant": 4887,
    "travaillez": 4888,
    "trouvent": 4889,
    "imm": 4890,
    "aussitôt": 4891,
    "connait": 4892,
    "admettre": 4893,
    "admets": 4894,
    "restés": 4895,
    "financi": 4896,
    "connaissons": 4897,
    "matière": 4898,
    "passées": 4899,
    "béné": 4900,
    "doué": 4901,
    "tableaux": 4902,
    "bale": 4903,
    "téléphoner": 4904,
    "perdue": 4905,
    "moder": 4906,
    "tric": 4907,
    "susp": 4908,
    "arriverait": 4909,
    "contents": 4910,
    "cente": 4911,
    "préférable": 4912,
    "offici": 4913,
    "Dépê": 4914,
    "juge": 4915,
    "cadeaux": 4916,
    "tromper": 4917,
    "endormir": 4918,
    "rempla": 4919,
    "profond": 4920,
    "lâche": 4921,
    "influ": 4922,
    "adorent": 4923,
    "science": 4924,
    "naturel": 4925,
    "directeur": 4926,
    "étrangères": 4927,
    "incroyablement": 4928,
    "effectuer": 4929,
    "talentu": 4930,
    "prononcer": 4931,
    "épuisé": 4932,
    "pratiquement": 4933,
    "dépourvu": 4934,
    "Commençons": 4935,
    "scène": 4936,
    "blâmer": 4937,
    "instructions": 4938,
    "honneur": 4939,
    "patronne": 4940,
    "étoffe": 4941,
    "Afri": 4942,
    "Cont": 4943,
    "bur": 4944,
    "joi": 4945,
    "mas": 4946,
    "pun": 4947,
    "ril": 4948,
    "veur": 4949,
    "Étu": 4950,
    "aitez": 4951,
    "envelop": 4952,
    "retenir": 4953,
    "reviendra": 4954,
    "quence": 4955,
    "devi": 4956,
    "paquet": 4957,
    "chais": 4958,
    "chet": 4959,
    "illon": 4960,
    "paroles": 4961,
    "désac": 4962,
    "sonner": 4963,
    "dies": 4964,
    "lignes": 4965,
    "comité": 4966,
    "ainé": 4967,
    "récol": 4968,
    "attitude": 4969,
    "irait": 4970,
    "survécu": 4971,
    "mier": 4972,
    "endrez": 4973,
    "cra": 4974,
    "croyez": 4975,
    "iers": 4976,
    "mépris": 4977,
    "travailles": 4978,
    "soli": 4979,
    "donnes": 4980,
    "demandes": 4981,
    "pirer": 4982,
    "courri": 4983,
    "soup": 4984,
    "travaillons": 4985,
    "aimerait": 4986,
    "faisiez": 4987,
    "bril": 4988,
    "longues": 4989,
    "visible": 4990,
    "malentendu": 4991,
    "forcée": 4992,
    "tente": 4993,
    "insis": 4994,
    "logie": 4995,
    "constitu": 4996,
    "rouges": 4997,
    "douce": 4998,
    "collè": 4999,
    "décl": 5000,
    "forts": 5001,
    "Aide": 5002,
    "romans": 5003,
    "exact": 5004,
    "offrir": 5005,
    "Dépêche": 5006,
    "continua": 5007,
    "rues": 5008,
    "signé": 5009,
    "pauvres": 5010,
    "autorisée": 5011,
    "autorisés": 5012,
    "employer": 5013,
    "remercie": 5014,
    "Essayons": 5015,
    "paraître": 5016,
    "cherchais": 5017,
    "prati": 5018,
    "merveilleuse": 5019,
    "agissait": 5020,
    "déménager": 5021,
    "appropri": 5022,
    "concerne": 5023,
    "supposée": 5024,
    "américain": 5025,
    "fleuve": 5026,
    "fâché": 5027,
    "mentionné": 5028,
    "bruy": 5029,
    "envisager": 5030,
    "justice": 5031,
    "admire": 5032,
    "expert": 5033,
    "passagers": 5034,
    "impôts": 5035,
    "Afrique": 5036,
    "Cou": 5037,
    "Man": 5038,
    "Mère": 5039,
    "blon": 5040,
    "card": 5041,
    "rattraper": 5042,
    "sants": 5043,
    "tèrent": 5044,
    "ètes": 5045,
    "égo": 5046,
    "îtres": 5047,
    "aides": 5048,
    "dette": 5049,
    "passez": 5050,
    "lampe": 5051,
    "chas": 5052,
    "truis": 5053,
    "tier": 5054,
    "inte": 5055,
    "injuste": 5056,
    "inhabitu": 5057,
    "ride": 5058,
    "dépla": 5059,
    "détruit": 5060,
    "sonna": 5061,
    "ditions": 5062,
    "ouvrez": 5063,
    "concours": 5064,
    "régu": 5065,
    "ago": 5066,
    "agres": 5067,
    "serré": 5068,
    "acteur": 5069,
    "prévenir": 5070,
    "croir": 5071,
    "exprès": 5072,
    "Espagne": 5073,
    "garé": 5074,
    "options": 5075,
    "marteau": 5076,
    "parties": 5077,
    "partiel": 5078,
    "ferons": 5079,
    "façons": 5080,
    "adap": 5081,
    "tenter": 5082,
    "essayais": 5083,
    "crier": 5084,
    "célé": 5085,
    "angez": 5086,
    "voyons": 5087,
    "doulou": 5088,
    "montrerai": 5089,
    "rendra": 5090,
    "attendent": 5091,
    "miroir": 5092,
    "retourné": 5093,
    "poussé": 5094,
    "sourit": 5095,
    "planète": 5096,
    "ennuie": 5097,
    "impressionnée": 5098,
    "math": 5099,
    "signer": 5100,
    "solaire": 5101,
    "habiller": 5102,
    "changements": 5103,
    "superbe": 5104,
    "Allu": 5105,
    "retira": 5106,
    "fermés": 5107,
    "vérifié": 5108,
    "meubles": 5109,
    "blagues": 5110,
    "actuelle": 5111,
    "client": 5112,
    "convaincue": 5113,
    "cherchent": 5114,
    "Trois": 5115,
    "brûlé": 5116,
    "employés": 5117,
    "ennuyer": 5118,
    "évidence": 5119,
    "éclata": 5120,
    "prétend": 5121,
    "Écoute": 5122,
    "tapis": 5123,
    "arranger": 5124,
    "délicieux": 5125,
    "Ouvrez": 5126,
    "confortable": 5127,
    "sensible": 5128,
    "volonté": 5129,
    "Papa": 5130,
    "écart": 5131,
    "cérémonie": 5132,
    "Plusieurs": 5133,
    "Internet": 5134,
    "Har": 5135,
    "abon": 5136,
    "ham": 5137,
    "hés": 5138,
    "los": 5139,
    "nons": 5140,
    "pur": 5141,
    "sè": 5142,
    "san": 5143,
    "taux": 5144,
    "vante": 5145,
    "wa": 5146,
    "Écris": 5147,
    "aigu": 5148,
    "représent": 5149,
    "secours": 5150,
    "sue": 5151,
    "suit": 5152,
    "orité": 5153,
    "étasuni": 5154,
    "rigé": 5155,
    "jette": 5156,
    "décor": 5157,
    "lim": 5158,
    "virer": 5159,
    "dessert": 5160,
    "rément": 5161,
    "ressources": 5162,
    "actrice": 5163,
    "icien": 5164,
    "rateur": 5165,
    "gentils": 5166,
    "marchan": 5167,
    "plau": 5168,
    "renvoy": 5169,
    "fiable": 5170,
    "commet": 5171,
    "faisaient": 5172,
    "gro": 5173,
    "formé": 5174,
    "forces": 5175,
    "acheta": 5176,
    "obe": 5177,
    "amical": 5178,
    "Devi": 5179,
    "arrêtée": 5180,
    "vente": 5181,
    "portée": 5182,
    "rencontres": 5183,
    "illégal": 5184,
    "moque": 5185,
    "explications": 5186,
    "danse": 5187,
    "clô": 5188,
    "juger": 5189,
    "moral": 5190,
    "réfrigé": 5191,
    "mater": 5192,
    "situe": 5193,
    "stupides": 5194,
    "Prenons": 5195,
    "retiré": 5196,
    "entendis": 5197,
    "tint": 5198,
    "rempor": 5199,
    "adorable": 5200,
    "mouchoir": 5201,
    "fantas": 5202,
    "ambition": 5203,
    "débrouillé": 5204,
    "pleurait": 5205,
    "grossier": 5206,
    "mètres": 5207,
    "Continue": 5208,
    "espace": 5209,
    "kilom": 5210,
    "Canadi": 5211,
    "distinguer": 5212,
    "allongé": 5213,
    "professionnel": 5214,
    "ridicule": 5215,
    "locuteur": 5216,
    "gueule": 5217,
    "soudainement": 5218,
    "établi": 5219,
    "quarante": 5220,
    "méthode": 5221,
    "embarrassé": 5222,
    "douzaine": 5223,
    "Presque": 5224,
    "cigarette": 5225,
    "récupérer": 5226,
    "contribu": 5227,
    "violence": 5228,
    "égoïs": 5229,
    "16": 5230,
    "CD": 5231,
    "Cor": 5232,
    "Ha": 5233,
    "Lis": 5234,
    "Lune": 5235,
    "Mange": 5236,
    "Maman": 5237,
    "Pose": 5238,
    "Seu": 5239,
    "cèrent": 5240,
    "gam": 5241,
    "gants": 5242,
    "glis": 5243,
    "har": 5244,
    "hos": 5245,
    "mouv": 5246,
    "nait": 5247,
    "nord": 5248,
    "ralent": 5249,
    "stric": 5250,
    "éni": 5251,
    "aida": 5252,
    "ennes": 5253,
    "era": 5254,
    "enter": 5255,
    "passera": 5256,
    "estre": 5257,
    "issez": 5258,
    "issement": 5259,
    "issue": 5260,
    "avou": 5261,
    "inon": 5262,
    "incapacité": 5263,
    "itaire": 5264,
    "pourrai": 5265,
    "dira": 5266,
    "dirent": 5267,
    "ama": 5268,
    "commer": 5269,
    "applau": 5270,
    "manqu": 5271,
    "protest": 5272,
    "cot": 5273,
    "actions": 5274,
    "bienvenu": 5275,
    "tatou": 5276,
    "disais": 5277,
    "auto": 5278,
    "venons": 5279,
    "nue": 5280,
    "cherchez": 5281,
    "lèvres": 5282,
    "vaches": 5283,
    "humour": 5284,
    "humains": 5285,
    "connus": 5286,
    "plom": 5287,
    "faisant": 5288,
    "pol": 5289,
    "gron": 5290,
    "grâce": 5291,
    "impuis": 5292,
    "regardez": 5293,
    "appelles": 5294,
    "trahi": 5295,
    "piège": 5296,
    "téléphoné": 5297,
    "sauté": 5298,
    "rendent": 5299,
    "pleuvra": 5300,
    "mirent": 5301,
    "utiles": 5302,
    "viendrais": 5303,
    "adorerais": 5304,
    "surprises": 5305,
    "amusés": 5306,
    "quasi": 5307,
    "préférez": 5308,
    "plaisante": 5309,
    "interdit": 5310,
    "matéri": 5311,
    "disposais": 5312,
    "publié": 5313,
    "papiers": 5314,
    "domicile": 5315,
    "profonde": 5316,
    "baisser": 5317,
    "sortis": 5318,
    "verrouillée": 5319,
    "jalouse": 5320,
    "hein": 5321,
    "impatience": 5322,
    "terriblement": 5323,
    "fréquence": 5324,
    "averti": 5325,
    "inventé": 5326,
    "obéir": 5327,
    "Juste": 5328,
    "pâle": 5329,
    "déroulé": 5330,
    "2013": 5331,
    "étoile": 5332,
    "cousin": 5333,
    "espagn": 5334,
    "pério": 5335,
    "corriger": 5336,
    "texte": 5337,
    "retardé": 5338,
    "myst": 5339,
    "alarme": 5340,
    "océan": 5341,
    "miracle": 5342,
    "physique": 5343,
    "activité": 5344,
    "désaccord": 5345,
    "réfrigérateur": 5346,
    "Oh": 5347,
    "Trav": 5348,
    "Valent": 5349,
    "far": 5350,
    "fêtes": 5351,
    "hous": 5352,
    "ias": 5353,
    "ibles": 5354,
    "lang": 5355,
    "mos": 5356,
    "mord": 5357,
    "nèrent": 5358,
    "ote": 5359,
    "psy": 5360,
    "til": 5361,
    "uil": 5362,
    "vard": 5363,
    "èvement": 5364,
    "encre": 5365,
    "revienne": 5366,
    "reviendrai": 5367,
    "entr": 5368,
    "enthous": 5369,
    "avert": 5370,
    "tués": 5371,
    "arna": 5372,
    "indus": 5373,
    "étang": 5374,
    "dégoû": 5375,
    "poursui": 5376,
    "touchez": 5377,
    "réus": 5378,
    "até": 5379,
    "atter": 5380,
    "voter": 5381,
    "maître": 5382,
    "acte": 5383,
    "cuire": 5384,
    "miens": 5385,
    "porta": 5386,
    "verres": 5387,
    "métro": 5388,
    "vache": 5389,
    "humi": 5390,
    "places": 5391,
    "plafond": 5392,
    "aidera": 5393,
    "contraire": 5394,
    "objet": 5395,
    "blessure": 5396,
    "doux": 5397,
    "double": 5398,
    "promet": 5399,
    "cardi": 5400,
    "arrivées": 5401,
    "écoutez": 5402,
    "eusement": 5403,
    "attendons": 5404,
    "pleuve": 5405,
    "pleuvait": 5406,
    "prennent": 5407,
    "endroits": 5408,
    "attrape": 5409,
    "foudre": 5410,
    "jupe": 5411,
    "coût": 5412,
    "camp": 5413,
    "continue": 5414,
    "mangea": 5415,
    "interpr": 5416,
    "secrets": 5417,
    "trompe": 5418,
    "alentours": 5419,
    "satisfaits": 5420,
    "espérons": 5421,
    "obligés": 5422,
    "chanteuse": 5423,
    "cruel": 5424,
    "effrayée": 5425,
    "dispute": 5426,
    "salon": 5427,
    "millions": 5428,
    "détestent": 5429,
    "embê": 5430,
    "illère": 5431,
    "élevés": 5432,
    "éléph": 5433,
    "tickets": 5434,
    "examiner": 5435,
    "excellente": 5436,
    "lourde": 5437,
    "application": 5438,
    "réduire": 5439,
    "déterminé": 5440,
    "accomplir": 5441,
    "Fumer": 5442,
    "œuvre": 5443,
    "naïf": 5444,
    "courageux": 5445,
    "jaune": 5446,
    "engagé": 5447,
    "gorge": 5448,
    "introdu": 5449,
    "météo": 5450,
    "suggestion": 5451,
    "kilomètres": 5452,
    "énig": 5453,
    "enthousias": 5454,
    "Em": 5455,
    "Sain": 5456,
    "Toi": 5457,
    "gy": 5458,
    "gét": 5459,
    "gnées": 5460,
    "h30": 5461,
    "ia": 5462,
    "mant": 5463,
    "ry": 5464,
    "scol": 5465,
    "tâ": 5466,
    "usine": 5467,
    "xy": 5468,
    "çait": 5469,
    "levée": 5470,
    "demment": 5471,
    "nellement": 5472,
    "passage": 5473,
    "choc": 5474,
    "arra": 5475,
    "parée": 5476,
    "dépenser": 5477,
    "pourraient": 5478,
    "diam": 5479,
    "conques": 5480,
    "conditions": 5481,
    "apporte": 5482,
    "approch": 5483,
    "vier": 5484,
    "agri": 5485,
    "ressenti": 5486,
    "ressemblent": 5487,
    "sales": 5488,
    "vrait": 5489,
    "quelconques": 5490,
    "couché": 5491,
    "cuit": 5492,
    "exécu": 5493,
    "végét": 5494,
    "couple": 5495,
    "garanti": 5496,
    "cate": 5497,
    "niveau": 5498,
    "fiez": 5499,
    "admis": 5500,
    "admet": 5501,
    "jouent": 5502,
    "gras": 5503,
    "personnelle": 5504,
    "partons": 5505,
    "emplettes": 5506,
    "voyagé": 5507,
    "paye": 5508,
    "payée": 5509,
    "Enfin": 5510,
    "trouverais": 5511,
    "lande": 5512,
    "promit": 5513,
    "poing": 5514,
    "accorder": 5515,
    "écrite": 5516,
    "produira": 5517,
    "présents": 5518,
    "devenus": 5519,
    "Aidez": 5520,
    "centaines": 5521,
    "côte": 5522,
    "sûrement": 5523,
    "calcu": 5524,
    "allumer": 5525,
    "réflex": 5526,
    "soigne": 5527,
    "nécessaires": 5528,
    "magasins": 5529,
    "endormie": 5530,
    "publicité": 5531,
    "noirs": 5532,
    "respecte": 5533,
    "souhaiter": 5534,
    "style": 5535,
    "désir": 5536,
    "traduction": 5537,
    "montagnes": 5538,
    "explos": 5539,
    "objection": 5540,
    "tendit": 5541,
    "âgées": 5542,
    "séjourné": 5543,
    "Président": 5544,
    "divorcer": 5545,
    "ciseaux": 5546,
    "consacré": 5547,
    "destination": 5548,
    "épaules": 5549,
    "grossière": 5550,
    "drogue": 5551,
    "Fuji": 5552,
    "coûtera": 5553,
    "compétent": 5554,
    "grimper": 5555,
    "amélioré": 5556,
    "fantômes": 5557,
    "fournir": 5558,
    "furieux": 5559,
    "Heureusement": 5560,
    "bombe": 5561,
    "demeure": 5562,
    "évanou": 5563,
    "reprocher": 5564,
    "Harvard": 5565,
    "marchandises": 5566,
    "clôture": 5567,
    "quasiment": 5568,
    "espagnol": 5569,
    "période": 5570,
    "Saint": 5571,
    "Gran": 5572,
    "Lisez": 5573,
    "Mangez": 5574,
    "Rends": 5575,
    "Rome": 5576,
    "ates": 5577,
    "azz": 5578,
    "blo": 5579,
    "ket": 5580,
    "mens": 5581,
    "maux": 5582,
    "nana": 5583,
    "pè": 5584,
    "som": 5585,
    "tot": 5586,
    "tendu": 5587,
    "vil": 5588,
    "».": 5589,
    "étique": 5590,
    "enverrai": 5591,
    "remet": 5592,
    "panier": 5593,
    "avé": 5594,
    "tus": 5595,
    "times": 5596,
    "timis": 5597,
    "partez": 5598,
    "parcourir": 5599,
    "cieux": 5600,
    "cible": 5601,
    "détec": 5602,
    "diable": 5603,
    "condam": 5604,
    "répan": 5605,
    "respon": 5606,
    "manques": 5607,
    "mesures": 5608,
    "voleurs": 5609,
    "tempor": 5610,
    "cuillère": 5611,
    "sév": 5612,
    "voudr": 5613,
    "mémor": 5614,
    "saisi": 5615,
    "bonjour": 5616,
    "optimis": 5617,
    "trouvais": 5618,
    "renom": 5619,
    "gnons": 5620,
    "jouez": 5621,
    "finit": 5622,
    "correspon": 5623,
    "emplis": 5624,
    "détour": 5625,
    "assass": 5626,
    "douze": 5627,
    "tradition": 5628,
    "ouvertes": 5629,
    "faibles": 5630,
    "chaî": 5631,
    "fonds": 5632,
    "polici": 5633,
    "tels": 5634,
    "saurait": 5635,
    "grosses": 5636,
    "casser": 5637,
    "tourné": 5638,
    "causer": 5639,
    "ballon": 5640,
    "lisez": 5641,
    "jugé": 5642,
    "boissons": 5643,
    "acceptable": 5644,
    "essaies": 5645,
    "Étasuni": 5646,
    "volant": 5647,
    "ignoré": 5648,
    "horaire": 5649,
    "invitées": 5650,
    "folles": 5651,
    "responsables": 5652,
    "Attrap": 5653,
    "fascin": 5654,
    "croyait": 5655,
    "choquée": 5656,
    "coincé": 5657,
    "factures": 5658,
    "climat": 5659,
    "absente": 5660,
    "hautement": 5661,
    "électron": 5662,
    "Répon": 5663,
    "emporté": 5664,
    "illante": 5665,
    "innocence": 5666,
    "exige": 5667,
    "Demandez": 5668,
    "fréquent": 5669,
    "applique": 5670,
    "victime": 5671,
    "candida": 5672,
    "supplémentaires": 5673,
    "Continuez": 5674,
    "soulagé": 5675,
    "origine": 5676,
    "tentative": 5677,
    "natale": 5678,
    "pétition": 5679,
    "signification": 5680,
    "ferez": 5681,
    "avancer": 5682,
    "piration": 5683,
    "enfuir": 5684,
    "fausse": 5685,
    "ambulance": 5686,
    "détonation": 5687,
    "vague": 5688,
    "moderne": 5689,
    "brillant": 5690,
    "maternelle": 5691,
    "égoïste": 5692,
    "langage": 5693,
    "soigneusement": 5694,
    "Bu": 5695,
    "Bois": 5696,
    "Bonne": 5697,
    "Chi": 5698,
    "Lâche": 5699,
    "Ra": 5700,
    "aler": 5701,
    "blé": 5702,
    "fl": 5703,
    "joie": 5704,
    "louse": 5705,
    "py": 5706,
    "ste": 5707,
    "évé": 5708,
    "remu": 5709,
    "oné": 5710,
    "deviens": 5711,
    "pattes": 5712,
    "anes": 5713,
    "entour": 5714,
    "teint": 5715,
    "ourdi": 5716,
    "armé": 5717,
    "argu": 5718,
    "ini": 5719,
    "intime": 5720,
    "étendu": 5721,
    "dées": 5722,
    "déco": 5723,
    "astu": 5724,
    "assé": 5725,
    "diriez": 5726,
    "contient": 5727,
    "confron": 5728,
    "libé": 5729,
    "libres": 5730,
    "dess": 5731,
    "mante": 5732,
    "témoin": 5733,
    "termes": 5734,
    "accent": 5735,
    "surprendre": 5736,
    "perple": 5737,
    "exer": 5738,
    "extra": 5739,
    "exagé": 5740,
    "néga": 5741,
    "gardes": 5742,
    "posée": 5743,
    "ots": 5744,
    "pitié": 5745,
    "voilà": 5746,
    "renversé": 5747,
    "soutien": 5748,
    "emmè": 5749,
    "frus": 5750,
    "menace": 5751,
    "chic": 5752,
    "visa": 5753,
    "malgré": 5754,
    "fortes": 5755,
    "Assieds": 5756,
    "souvenez": 5757,
    "bouge": 5758,
    "bougies": 5759,
    "ennemis": 5760,
    "doutes": 5761,
    "lancer": 5762,
    "litté": 5763,
    "pointe": 5764,
    "dorment": 5765,
    "onnement": 5766,
    "écoutes": 5767,
    "Remettez": 5768,
    "large": 5769,
    "rases": 5770,
    "buvez": 5771,
    "expliqua": 5772,
    "assisté": 5773,
    "hone": 5774,
    "soucier": 5775,
    "risqué": 5776,
    "réussite": 5777,
    "classique": 5778,
    "sacs": 5779,
    "chargée": 5780,
    "informer": 5781,
    "enseignants": 5782,
    "espè": 5783,
    "disposes": 5784,
    "disposée": 5785,
    "fourchette": 5786,
    "fermées": 5787,
    "remplir": 5788,
    "intéressés": 5789,
    "regardait": 5790,
    "échouer": 5791,
    "cherchait": 5792,
    "miel": 5793,
    "organisé": 5794,
    "verrouillé": 5795,
    "verrouiller": 5796,
    "pensiez": 5797,
    "séjourner": 5798,
    "divorcé": 5799,
    "arrivait": 5800,
    "débrouiller": 5801,
    "prétendu": 5802,
    "responsabilités": 5803,
    "déterminer": 5804,
    "plaisanterie": 5805,
    "persuadé": 5806,
    "scientifiques": 5807,
    "éloigné": 5808,
    "Dix": 5809,
    "nettoyé": 5810,
    "identité": 5811,
    "Choisissez": 5812,
    "suggéré": 5813,
    "adultes": 5814,
    "manifest": 5815,
    "décrire": 5816,
    "opportunité": 5817,
    "invest": 5818,
    "ambitieux": 5819,
    "chirurgi": 5820,
    "aimable": 5821,
    "croient": 5822,
    "considère": 5823,
    "conducteur": 5824,
    "similaire": 5825,
    "dissimu": 5826,
    "courriel": 5827,
    "soupçon": 5828,
    "tatouage": 5829,
    "pollu": 5830,
    "cardiaque": 5831,
    "argument": 5832,
    "18": 5833,
    "Pro": 5834,
    "Serais": 5835,
    "Tra": 5836,
    "US": 5837,
    "atique": 5838,
    "bac": 5839,
    "bel": 5840,
    "fainé": 5841,
    "gène": 5842,
    "itement": 5843,
    "jure": 5844,
    "nalité": 5845,
    "rité": 5846,
    "stres": 5847,
    "sites": 5848,
    "tè": 5849,
    "taire": 5850,
    "ya": 5851,
    "aimée": 5852,
    "ouï": 5853,
    "reproche": 5854,
    "requis": 5855,
    "dettes": 5856,
    "pani": 5857,
    "ani": 5858,
    "passes": 5859,
    "issent": 5860,
    "lace": 5861,
    "lapin": 5862,
    "tible": 5863,
    "intimi": 5864,
    "pari": 5865,
    "pares": 5866,
    "étend": 5867,
    "sière": 5868,
    "siff": 5869,
    "dépendant": 5870,
    "débat": 5871,
    "dépit": 5872,
    "désert": 5873,
    "tesse": 5874,
    "aly": 5875,
    "vivez": 5876,
    "réchauff": 5877,
    "agu": 5878,
    "irais": 5879,
    "serions": 5880,
    "serrure": 5881,
    "code": 5882,
    "maîtr": 5883,
    "accoutu": 5884,
    "dité": 5885,
    "prévoyez": 5886,
    "préoccupe": 5887,
    "ports": 5888,
    "rafraî": 5889,
    "tence": 5890,
    "Mars": 5891,
    "poses": 5892,
    "pensons": 5893,
    "allergique": 5894,
    "parlerai": 5895,
    "courus": 5896,
    "soucis": 5897,
    "mince": 5898,
    "Ont": 5899,
    "Monte": 5900,
    "autrement": 5901,
    "longueur": 5902,
    "comple": 5903,
    "crié": 5904,
    "commencent": 5905,
    "détendu": 5906,
    "appela": 5907,
    "fuite": 5908,
    "hési": 5909,
    "politi": 5910,
    "écriture": 5911,
    "moto": 5912,
    "modi": 5913,
    "modèle": 5914,
    "utilité": 5915,
    "amusées": 5916,
    "prudence": 5917,
    "gences": 5918,
    "genoux": 5919,
    "côtés": 5920,
    "balles": 5921,
    "sucré": 5922,
    "calmes": 5923,
    "interro": 5924,
    "oblige": 5925,
    "élection": 5926,
    "autorité": 5927,
    "habillée": 5928,
    "soins": 5929,
    "Attention": 5930,
    "empêché": 5931,
    "Avons": 5932,
    "plaintes": 5933,
    "devenues": 5934,
    "stop": 5935,
    "obligées": 5936,
    "baissé": 5937,
    "miennes": 5938,
    "mignons": 5939,
    "ignez": 5940,
    "traduit": 5941,
    "attaque": 5942,
    "poil": 5943,
    "poison": 5944,
    "poignée": 5945,
    "pisto": 5946,
    "milliers": 5947,
    "recommanda": 5948,
    "Réflé": 5949,
    "citoy": 5950,
    "attirante": 5951,
    "chinoise": 5952,
    "siècle": 5953,
    "demandai": 5954,
    "divorce": 5955,
    "violent": 5956,
    "consacrer": 5957,
    "interrompre": 5958,
    "gaspiller": 5959,
    "voisinage": 5960,
    "gratuit": 5961,
    "donnèrent": 5962,
    "ponctuel": 5963,
    "Canada": 5964,
    "russe": 5965,
    "négli": 5966,
    "négligent": 5967,
    "excitant": 5968,
    "affecte": 5969,
    "pétrin": 5970,
    "pétrole": 5971,
    "grenier": 5972,
    "musicien": 5973,
    "dérobé": 5974,
    "zone": 5975,
    "serpents": 5976,
    "déprimée": 5977,
    "Dépêchez": 5978,
    "chaises": 5979,
    "inhabituel": 5980,
    "maths": 5981,
    "commerce": 5982,
    "Valentin": 5983,
    "Bi": 5984,
    "Fina": 5985,
    "Mons": 5986,
    "Mont": 5987,
    "Net": 5988,
    "Rest": 5989,
    "Rec": 5990,
    "Rendez": 5991,
    "Util": 5992,
    "Voy": 5993,
    "bai": 5994,
    "fre": 5995,
    "gon": 5996,
    "mout": 5997,
    "nou": 5998,
    "rants": 5999,
    "vage": 6000,
    "Éloi": 6001,
    "requi": 6002,
    "repé": 6003,
    "reprendre": 6004,
    "retenu": 6005,
    "reprises": 6006,
    "rejeté": 6007,
    "leure": 6008,
    "neau": 6009,
    "enterre": 6010,
    "issons": 6011,
    "issante": 6012,
    "auté": 6013,
    "chent": 6014,
    "tues": 6015,
    "trie": 6016,
    "intri": 6017,
    "pardonné": 6018,
    "sien": 6019,
    "défini": 6020,
    "dépenses": 6021,
    "délai": 6022,
    "conte": 6023,
    "amuse": 6024,
    "amène": 6025,
    "libr": 6026,
    "appéti": 6027,
    "vies": 6028,
    "vive": 6029,
    "viendrez": 6030,
    "bier": 6031,
    "binet": 6032,
    "respirer": 6033,
    "progres": 6034,
    "attra": 6035,
    "iras": 6036,
    "cope": 6037,
    "survivre": 6038,
    "surprenant": 6039,
    "couche": 6040,
    "ffe": 6041,
    "prévoir": 6042,
    "venais": 6043,
    "guide": 6044,
    "otée": 6045,
    "soû": 6046,
    "niques": 6047,
    "besoins": 6048,
    "partirai": 6049,
    "gérant": 6050,
    "voies": 6051,
    "human": 6052,
    "plas": 6053,
    "placard": 6054,
    "ausée": 6055,
    "enfui": 6056,
    "emmène": 6057,
    "grandis": 6058,
    "aboyer": 6059,
    "plon": 6060,
    "visi": 6061,
    "devras": 6062,
    "rêvé": 6063,
    "malheureuse": 6064,
    "huile": 6065,
    "achetée": 6066,
    "oreiller": 6067,
    "étudiantes": 6068,
    "inscri": 6069,
    "empi": 6070,
    "appelait": 6071,
    "commentaire": 6072,
    "trouveras": 6073,
    "carottes": 6074,
    "collier": 6075,
    "bala": 6076,
    "sauta": 6077,
    "écoulé": 6078,
    "rendrait": 6079,
    "attendit": 6080,
    "trico": 6081,
    "profiter": 6082,
    "preniez": 6083,
    "types": 6084,
    "touristes": 6085,
    "confiant": 6086,
    "exacte": 6087,
    "médecine": 6088,
    "souhaitez": 6089,
    "camper": 6090,
    "banane": 6091,
    "accepte": 6092,
    "équipage": 6093,
    "journaliste": 6094,
    "téléviseur": 6095,
    "poux": 6096,
    "envoya": 6097,
    "moyenne": 6098,
    "censés": 6099,
    "disposent": 6100,
    "endormis": 6101,
    "traversa": 6102,
    "profondeur": 6103,
    "prêterai": 6104,
    "brièvement": 6105,
    "mouillé": 6106,
    "augmenté": 6107,
    "videmment": 6108,
    "souvenirs": 6109,
    "heurté": 6110,
    "réserver": 6111,
    "réservé": 6112,
    "attirer": 6113,
    "accompagne": 6114,
    "effectué": 6115,
    "descendu": 6116,
    "curieuse": 6117,
    "escala": 6118,
    "déclaré": 6119,
    "maigre": 6120,
    "pleura": 6121,
    "panneau": 6122,
    "annonce": 6123,
    "cuisinière": 6124,
    "gratuitement": 6125,
    "borde": 6126,
    "aîné": 6127,
    "descendit": 6128,
    "obscurité": 6129,
    "jumeaux": 6130,
    "frontière": 6131,
    "offensé": 6132,
    "appuyer": 6133,
    "étonné": 6134,
    "pull": 6135,
    "fraîche": 6136,
    "secrète": 6137,
    "aperçu": 6138,
    "manuel": 6139,
    "fantôme": 6140,
    "procurer": 6141,
    "conditionné": 6142,
    "câlin": 6143,
    "Asseyons": 6144,
    "pharma": 6145,
    "chèque": 6146,
    "sympathique": 6147,
    "local": 6148,
    "Éteins": 6149,
    "légèrement": 6150,
    "véhicule": 6151,
    "candidat": 6152,
    "galerie": 6153,
    "douloureux": 6154,
    "industrie": 6155,
    "humide": 6156,
    "promettre": 6157,
    "policiers": 6158,
    "candidature": 6159,
    "steak": 6160,
    "hésitez": 6161,
    "pistolet": 6162,
    "Finalement": 6163,
    "Monsieur": 6164,
    "appétit": 6165,
    ".»": 6166,
    "Bais": 6167,
    "Celle": 6168,
    "Lin": 6169,
    "Remplis": 6170,
    "batt": 6171,
    "baign": 6172,
    "boite": 6173,
    "caux": 6174,
    "dotée": 6175,
    "flic": 6176,
    "han": 6177,
    "ker": 6178,
    "king": 6179,
    "loy": 6180,
    "laires": 6181,
    "nôtre": 6182,
    "pent": 6183,
    "ronnement": 6184,
    "sèrent": 6185,
    "scep": 6186,
    "vari": 6187,
    "âchez": 6188,
    "émis": 6189,
    "époux": 6190,
    "ûte": 6191,
    "essu": 6192,
    "escla": 6193,
    "essentie": 6194,
    "encour": 6195,
    "encourage": 6196,
    "repris": 6197,
    "revient": 6198,
    "leman": 6199,
    "quart": 6200,
    "lap": 6201,
    "secou": 6202,
    "chasse": 6203,
    "avent": 6204,
    "prirent": 6205,
    "tira": 6206,
    "incident": 6207,
    "insec": 6208,
    "parten": 6209,
    "parliez": 6210,
    "dégu": 6211,
    "déchi": 6212,
    "dégo": 6213,
    "déposer": 6214,
    "songer": 6215,
    "digne": 6216,
    "diminu": 6217,
    "contrain": 6218,
    "compl": 6219,
    "comporter": 6220,
    "alli": 6221,
    "alph": 6222,
    "dansé": 6223,
    "provis": 6224,
    "ath": 6225,
    "serrer": 6226,
    "coopé": 6227,
    "survi": 6228,
    "survenir": 6229,
    "perman": 6230,
    "pelouse": 6231,
    "chemises": 6232,
    "prépare": 6233,
    "prévenue": 6234,
    "crut": 6235,
    "tax": 6236,
    "existe": 6237,
    "deviné": 6238,
    "Pourrions": 6239,
    "disposi": 6240,
    "nerai": 6241,
    "nerfs": 6242,
    "guit": 6243,
    "posons": 6244,
    "ophone": 6245,
    "caf": 6246,
    "pouvaient": 6247,
    "gentleman": 6248,
    "nia": 6249,
    "voisine": 6250,
    "humain": 6251,
    "soulever": 6252,
    "phère": 6253,
    "phrases": 6254,
    "aboie": 6255,
    "jouets": 6256,
    "poète": 6257,
    "Montez": 6258,
    "franchement": 6259,
    "tentation": 6260,
    "Assu": 6261,
    "personnellement": 6262,
    "cédent": 6263,
    "boutique": 6264,
    "empire": 6265,
    "obilier": 6266,
    "conséqu": 6267,
    "roug": 6268,
    "quées": 6269,
    "trah": 6270,
    "chaleure": 6271,
    "lança": 6272,
    "lancé": 6273,
    "polie": 6274,
    "produis": 6275,
    "effon": 6276,
    "familles": 6277,
    "présenta": 6278,
    "mobile": 6279,
    "rendiez": 6280,
    "viendriez": 6281,
    "clefs": 6282,
    "fierté": 6283,
    "prennes": 6284,
    "pousse": 6285,
    "basket": 6286,
    "quitta": 6287,
    "bataille": 6288,
    "patients": 6289,
    "patiente": 6290,
    "rompre": 6291,
    "personnalité": 6292,
    "source": 6293,
    "truite": 6294,
    "professeurs": 6295,
    "caméra": 6296,
    "camara": 6297,
    "bananes": 6298,
    "gâteaux": 6299,
    "allumette": 6300,
    "habiter": 6301,
    "boîtes": 6302,
    "garderai": 6303,
    "indique": 6304,
    "indivi": 6305,
    "environnement": 6306,
    "entendus": 6307,
    "captu": 6308,
    "remarquer": 6309,
    "secondes": 6310,
    "regardant": 6311,
    "tiennent": 6312,
    "espoirs": 6313,
    "murs": 6314,
    "estimé": 6315,
    "économiser": 6316,
    "recommander": 6317,
    "réservation": 6318,
    "fermement": 6319,
    "approcher": 6320,
    "graphe": 6321,
    "maigri": 6322,
    "assiette": 6323,
    "supposés": 6324,
    "achevé": 6325,
    "nationale": 6326,
    "Jouons": 6327,
    "suicider": 6328,
    "craint": 6329,
    "révéla": 6330,
    "traitement": 6331,
    "aînée": 6332,
    "documents": 6333,
    "adolescent": 6334,
    "identi": 6335,
    "ongles": 6336,
    "Arrives": 6337,
    "adulte": 6338,
    "tiendra": 6339,
    "propriété": 6340,
    "essaierai": 6341,
    "favori": 6342,
    "entraîneur": 6343,
    "enregistre": 6344,
    "gosse": 6345,
    "embarrass": 6346,
    "influence": 6347,
    "Allume": 6348,
    "Devine": 6349,
    "fantastique": 6350,
    "mystère": 6351,
    "tâches": 6352,
    "électronique": 6353,
    "littéra": 6354,
    "Réfléchis": 6355,
    "moutons": 6356,
    "librai": 6357,
    "humanité": 6358,
    "plastique": 6359,
    "alphab": 6360,
    "camarades": 6361,
    "Cons": 6362,
    "Emp": 6363,
    "Mi": 6364,
    "Soit": 6365,
    "are": 6366,
    "bav": 6367,
    "brer": 6368,
    "dait": 6369,
    "dable": 6370,
    "gel": 6371,
    "joy": 6372,
    "ky": 6373,
    "mail": 6374,
    "not": 6375,
    "noire": 6376,
    "pt": 6377,
    "rock": 6378,
    "vrions": 6379,
    "vôtres": 6380,
    "ât": 6381,
    "ètre": 6382,
    "èmes": 6383,
    "évo": 6384,
    "în": 6385,
    "ende": 6386,
    "retrouvé": 6387,
    "remets": 6388,
    "deviendra": 6389,
    "papil": 6390,
    "oignons": 6391,
    "tection": 6392,
    "eure": 6393,
    "chô": 6394,
    "chois": 6395,
    "avril": 6396,
    "prier": 6397,
    "tueux": 6398,
    "trous": 6399,
    "archi": 6400,
    "sud": 6401,
    "tivé": 6402,
    "orités": 6403,
    "oranges": 6404,
    "mentent": 6405,
    "étant": 6406,
    "sibles": 6407,
    "décro": 6408,
    "décevoir": 6409,
    "confondu": 6410,
    "amer": 6411,
    "lice": 6412,
    "duré": 6413,
    "alter": 6414,
    "allai": 6415,
    "osité": 6416,
    "récla": 6417,
    "montr": 6418,
    "ressent": 6419,
    "ressembles": 6420,
    "manquent": 6421,
    "protection": 6422,
    "atmos": 6423,
    "vote": 6424,
    "témoi": 6425,
    "sade": 6426,
    "surveille": 6427,
    "surpoids": 6428,
    "survivants": 6429,
    "couleurs": 6430,
    "micro": 6431,
    "chemar": 6432,
    "Comprenez": 6433,
    "distrait": 6434,
    "verser": 6435,
    "version": 6436,
    "raff": 6437,
    "bone": 6438,
    "arrives": 6439,
    "posta": 6440,
    "ortho": 6441,
    "chers": 6442,
    "lèche": 6443,
    "voici": 6444,
    "imbé": 6445,
    "enfre": 6446,
    "outils": 6447,
    "embar": 6448,
    "frappe": 6449,
    "abs": 6450,
    "abri": 6451,
    "absor": 6452,
    "jouais": 6453,
    "joueurs": 6454,
    "rettes": 6455,
    "brit": 6456,
    "visit": 6457,
    "vision": 6458,
    "devra": 6459,
    "malheur": 6460,
    "malchanceux": 6461,
    "tentions": 6462,
    "compose": 6463,
    "presser": 6464,
    "pressée": 6465,
    "féri": 6466,
    "souvient": 6467,
    "boue": 6468,
    "Permettez": 6469,
    "Devrions": 6470,
    "assons": 6471,
    "oublia": 6472,
    "privée": 6473,
    "ouverture": 6474,
    "entendues": 6475,
    "suivante": 6476,
    "conduirai": 6477,
    "décès": 6478,
    "sauve": 6479,
    "Reviens": 6480,
    "moquer": 6481,
    "clari": 6482,
    "affir": 6483,
    "contentes": 6484,
    "poussière": 6485,
    "batterie": 6486,
    "demanderai": 6487,
    "prudemment": 6488,
    "travailleurs": 6489,
    "clin": 6490,
    "cauchemar": 6491,
    "paremment": 6492,
    "semblé": 6493,
    "juin": 6494,
    "mangeons": 6495,
    "commander": 6496,
    "rumeurs": 6497,
    "méritez": 6498,
    "charmant": 6499,
    "autoriser": 6500,
    "loué": 6501,
    "disposez": 6502,
    "consciente": 6503,
    "fourni": 6504,
    "embrassa": 6505,
    "trompes": 6506,
    "changea": 6507,
    "frappée": 6508,
    "réveil": 6509,
    "raconte": 6510,
    "othèse": 6511,
    "remarqu": 6512,
    "emplois": 6513,
    "atteignit": 6514,
    "occuperai": 6515,
    "Essaye": 6516,
    "idiots": 6517,
    "intéressées": 6518,
    "regardais": 6519,
    "jeunesse": 6520,
    "sortons": 6521,
    "adoré": 6522,
    "considérer": 6523,
    "considération": 6524,
    "tranquilles": 6525,
    "naturelle": 6526,
    "démissionné": 6527,
    "brûle": 6528,
    "gravement": 6529,
    "accompagné": 6530,
    "morceaux": 6531,
    "arrivèrent": 6532,
    "linge": 6533,
    "éclaté": 6534,
    "soldat": 6535,
    "achever": 6536,
    "pilote": 6537,
    "déroule": 6538,
    "suicidé": 6539,
    "Écoutez": 6540,
    "défun": 6541,
    "volontaires": 6542,
    "fâchée": 6543,
    "kilos": 6544,
    "canadien": 6545,
    "adolescents": 6546,
    "noyé": 6547,
    "éprouve": 6548,
    "Soud": 6549,
    "relig": 6550,
    "construire": 6551,
    "sincère": 6552,
    "tiendrai": 6553,
    "adopté": 6554,
    "millionnaire": 6555,
    "Promets": 6556,
    "Promettez": 6557,
    "hypothèse": 6558,
    "pompier": 6559,
    "normale": 6560,
    "fichier": 6561,
    "thme": 6562,
    "réside": 6563,
    "réputation": 6564,
    "baleine": 6565,
    "burger": 6566,
    "enveloppe": 6567,
    "énigme": 6568,
    "gym": 6569,
    "condamné": 6570,
    "initi": 6571,
    "visiteurs": 6572,
    "guitar": 6573,
    "Assurez": 6574,
    "alterna": 6575,
    "atmosphère": 6576,
    "?»": 6577,
    "Dét": 6578,
    "Gr": 6579,
    "Rentre": 6580,
    "Rappelle": 6581,
    "bœuf": 6582,
    "dg": 6583,
    "gur": 6584,
    "glais": 6585,
    "hais": 6586,
    "jazz": 6587,
    "nus": 6588,
    "pendu": 6589,
    "saient": 6590,
    "vrer": 6591,
    "vins": 6592,
    "ouest": 6593,
    "envisage": 6594,
    "rever": 6595,
    "neuve": 6596,
    "anxi": 6597,
    "Jette": 6598,
    "entrés": 6599,
    "entendez": 6600,
    "passent": 6601,
    "iso": 6602,
    "isant": 6603,
    "lateur": 6604,
    "avisé": 6605,
    "pros": 6606,
    "trine": 6607,
    "supé": 6608,
    "intes": 6609,
    "inconnu": 6610,
    "inattendu": 6611,
    "intentions": 6612,
    "tremp": 6613,
    "parvenue": 6614,
    "parvenus": 6615,
    "cie": 6616,
    "ciga": 6617,
    "déser": 6618,
    "dépense": 6619,
    "décol": 6620,
    "ouvris": 6621,
    "compétition": 6622,
    "vitre": 6623,
    "virent": 6624,
    "réception": 6625,
    "bio": 6626,
    "bières": 6627,
    "mang": 6628,
    "manches": 6629,
    "procéder": 6630,
    "volée": 6631,
    "téri": 6632,
    "surface": 6633,
    "coulé": 6634,
    "midable": 6635,
    "crée": 6636,
    "devrez": 6637,
    "Comprends": 6638,
    "pure": 6639,
    "veillez": 6640,
    "méprise": 6641,
    "ménag": 6642,
    "saisir": 6643,
    "bondé": 6644,
    "oppos": 6645,
    "opposé": 6646,
    "nié": 6647,
    "pié": 6648,
    "changent": 6649,
    "feront": 6650,
    "plats": 6651,
    "soulevé": 6652,
    "emmé": 6653,
    "ceris": 6654,
    "puissant": 6655,
    "abas": 6656,
    "abus": 6657,
    "absur": 6658,
    "plaire": 6659,
    "advenu": 6660,
    "poker": 6661,
    "brillante": 6662,
    "autrefois": 6663,
    "impoli": 6664,
    "nomme": 6665,
    "finie": 6666,
    "connaissiez": 6667,
    "criti": 6668,
    "crimin": 6669,
    "étudies": 6670,
    "inst": 6671,
    "instru": 6672,
    "inspiration": 6673,
    "commences": 6674,
    "commençons": 6675,
    "soirs": 6676,
    "payés": 6677,
    "précieux": 6678,
    "rouler": 6679,
    "jeudi": 6680,
    "primer": 6681,
    "chambres": 6682,
    "ouverts": 6683,
    "faille": 6684,
    "promo": 6685,
    "carac": 6686,
    "mariées": 6687,
    "fugi": 6688,
    "hésite": 6689,
    "prendrais": 6690,
    "dormait": 6691,
    "sauce": 6692,
    "saura": 6693,
    "effron": 6694,
    "budg": 6695,
    "profit": 6696,
    "retourna": 6697,
    "sourd": 6698,
    "bande": 6699,
    "calmer": 6700,
    "emploie": 6701,
    "oblig": 6702,
    "ruption": 6703,
    "changera": 6704,
    "satisfaire": 6705,
    "satisfaites": 6706,
    "commencez": 6707,
    "habits": 6708,
    "Aussitôt": 6709,
    "abandonne": 6710,
    "désorient": 6711,
    "voulut": 6712,
    "droits": 6713,
    "publique": 6714,
    "princesse": 6715,
    "manquez": 6716,
    "bagu": 6717,
    "meurent": 6718,
    "préparée": 6719,
    "domaine": 6720,
    "assure": 6721,
    "espérait": 6722,
    "bâtiments": 6723,
    "baisse": 6724,
    "Suisse": 6725,
    "spécialité": 6726,
    "cherchons": 6727,
    "pauvreté": 6728,
    "grammaire": 6729,
    "fallut": 6730,
    "entraîné": 6731,
    "entraînement": 6732,
    "Anglais": 6733,
    "attentif": 6734,
    "dingues": 6735,
    "crayons": 6736,
    "déménage": 6737,
    "diplom": 6738,
    "curiosité": 6739,
    "exigences": 6740,
    "déclara": 6741,
    "participé": 6742,
    "éveillée": 6743,
    "concernant": 6744,
    "laid": 6745,
    "américaine": 6746,
    "victimes": 6747,
    "magazines": 6748,
    "délicieuse": 6749,
    "électrique": 6750,
    "origin": 6751,
    "canadienne": 6752,
    "terrifi": 6753,
    "naïve": 6754,
    "Trouve": 6755,
    "branche": 6756,
    "monsieur": 6757,
    "secrétaire": 6758,
    "brosse": 6759,
    "Arrivez": 6760,
    "grenou": 6761,
    "abeille": 6762,
    "construction": 6763,
    "propriétaire": 6764,
    "Sud": 6765,
    "raccour": 6766,
    "existence": 6767,
    "Entrez": 6768,
    "Oublie": 6769,
    "résister": 6770,
    "émotions": 6771,
    "embrasse": 6772,
    "Asseyez": 6773,
    "achèterais": 6774,
    "enregis": 6775,
    "mérites": 6776,
    "commercial": 6777,
    "rejoint": 6778,
    "connec": 6779,
    "souviend": 6780,
    "talentueux": 6781,
    "pratiquer": 6782,
    "rythme": 6783,
    "pèse": 6784,
    "optimiste": 6785,
    "pyjam": 6786,
    "événement": 6787,
    "USA": 6788,
    "paresseu": 6789,
    "enterrement": 6790,
    "essentiel": 6791,
    "librairie": 6792,
    "înmes": 6793,
    "chômage": 6794,
    "Grâce": 6795,
    "budget": 6796,
    "Alice": 6797,
    "Don": 6798,
    "Eff": 6799,
    "Fi": 6800,
    "Lâchez": 6801,
    "Prête": 6802,
    "Sui": 6803,
    "bés": 6804,
    "ceur": 6805,
    "clus": 6806,
    "cago": 6807,
    "dant": 6808,
    "foir": 6809,
    "flat": 6810,
    "gou": 6811,
    "grés": 6812,
    "ice": 6813,
    "mâ": 6814,
    "mité": 6815,
    "oxy": 6816,
    "ramener": 6817,
    "saurais": 6818,
    "tage": 6819,
    "taient": 6820,
    "tâmes": 6821,
    "vîmes": 6822,
    "yen": 6823,
    "Étant": 6824,
    "âme": 6825,
    "épée": 6826,
    "aidiez": 6827,
    "requ": 6828,
    "reporter": 6829,
    "recommencer": 6830,
    "revenus": 6831,
    "record": 6832,
    "parez": 6833,
    "aniste": 6834,
    "quemment": 6835,
    "entez": 6836,
    "eurent": 6837,
    "chèvre": 6838,
    "trons": 6839,
    "tristes": 6840,
    "arde": 6841,
    "tirez": 6842,
    "timbre": 6843,
    "ordonné": 6844,
    "ordonna": 6845,
    "indifférent": 6846,
    "lesquelles": 6847,
    "partes": 6848,
    "pardon": 6849,
    "luxe": 6850,
    "jeans": 6851,
    "cite": 6852,
    "endi": 6853,
    "endom": 6854,
    "pourra": 6855,
    "compromis": 6856,
    "alé": 6857,
    "allant": 6858,
    "récom": 6859,
    "récente": 6860,
    "mangée": 6861,
    "prover": 6862,
    "attribu": 6863,
    "légal": 6864,
    "vola": 6865,
    "termine": 6866,
    "serra": 6867,
    "coca": 6868,
    "illet": 6869,
    "majeu": 6870,
    "actes": 6871,
    "bienvenus": 6872,
    "rang": 6873,
    "ranger": 6874,
    "précédent": 6875,
    "toie": 6876,
    "disposition": 6877,
    "métier": 6878,
    "nuclé": 6879,
    "pouvant": 6880,
    "trouvez": 6881,
    "trouvés": 6882,
    "partiez": 6883,
    "géré": 6884,
    "justement": 6885,
    "piqué": 6886,
    "humil": 6887,
    "enfuit": 6888,
    "probabilité": 6889,
    "travaillais": 6890,
    "travaillait": 6891,
    "frites": 6892,
    "aimerions": 6893,
    "mena": 6894,
    "menu": 6895,
    "advienne": 6896,
    "restait": 6897,
    "impor": 6898,
    "aiderait": 6899,
    "fortement": 6900,
    "forcés": 6901,
    "cordes": 6902,
    "insta": 6903,
    "souven": 6904,
    "regardent": 6905,
    "commencèrent": 6906,
    "blessures": 6907,
    "habile": 6908,
    "bébés": 6909,
    "trouverai": 6910,
    "déjeune": 6911,
    "habitue": 6912,
    "écrivit": 6913,
    "rencontriez": 6914,
    "importants": 6915,
    "roï": 6916,
    "attente": 6917,
    "réel": 6918,
    "trouverez": 6919,
    "typhon": 6920,
    "tourna": 6921,
    "assistant": 6922,
    "genou": 6923,
    "laissées": 6924,
    "offrit": 6925,
    "Débarr": 6926,
    "valait": 6927,
    "impressionnant": 6928,
    "pierres": 6929,
    "élevée": 6930,
    "Apprendre": 6931,
    "stupé": 6932,
    "habille": 6933,
    "arrêtés": 6934,
    "décisions": 6935,
    "conscienci": 6936,
    "préfèrerais": 6937,
    "crevé": 6938,
    "empêcha": 6939,
    "souffrir": 6940,
    "inévit": 6941,
    "raconta": 6942,
    "aidée": 6943,
    "vécut": 6944,
    "expériences": 6945,
    "avocats": 6946,
    "glacée": 6947,
    "vieillis": 6948,
    "disputent": 6949,
    "désas": 6950,
    "désirez": 6951,
    "alibi": 6952,
    "attaqué": 6953,
    "impliquée": 6954,
    "précis": 6955,
    "étranges": 6956,
    "organisée": 6957,
    "manipu": 6958,
    "chauffage": 6959,
    "région": 6960,
    "appels": 6961,
    "arrivâmes": 6962,
    "Servez": 6963,
    "tracasse": 6964,
    "Surveille": 6965,
    "diplôme": 6966,
    "aveug": 6967,
    "chucho": 6968,
    "principal": 6969,
    "natation": 6970,
    "conclusion": 6971,
    "disponibles": 6972,
    "ologie": 6973,
    "objectifs": 6974,
    "pneus": 6975,
    "religi": 6976,
    "sincèrement": 6977,
    "engager": 6978,
    "équili": 6979,
    "élégant": 6980,
    "ouvriers": 6981,
    "flam": 6982,
    "Retourne": 6983,
    "phares": 6984,
    "conserver": 6985,
    "écrasé": 6986,
    "shir": 6987,
    "décevant": 6988,
    "abattu": 6989,
    "licencié": 6990,
    "défauts": 6991,
    "Descends": 6992,
    "confirmer": 6993,
    "pagaille": 6994,
    "récolte": 6995,
    "approprié": 6996,
    "sèche": 6997,
    "renvoyé": 6998,
    "Canadien": 6999,
    "mouvement": 7000,
    "éléphants": 7001,
    "scolaire": 7002,
    "diamant": 7003,
    "réflexion": 7004,
    "Étasuniens": 7005,
    "Chicago": 7006,
    "perplexe": 7007,
    "frustr": 7008,
    "pollution": 7009,
    "attrapa": 7010,
    "lapins": 7011,
    "Soudain": 7012,
    "religion": 7013,
    "cigarettes": 7014,
    "Suivez": 7015,
    "Ajou": 7016,
    "Asie": 7017,
    "Face": 7018,
    "Gri": 7019,
    "Ici": 7020,
    "Nag": 7021,
    "Portez": 7022,
    "Rou": 7023,
    "Sau": 7024,
    "Soyons": 7025,
    "Uni": 7026,
    "Véri": 7027,
    "bû": 7028,
    "bin": 7029,
    "bec": 7030,
    "cran": 7031,
    "eûmes": 7032,
    "fan": 7033,
    "hant": 7034,
    "iP": 7035,
    "ki": 7036,
    "land": 7037,
    "mèrent": 7038,
    "pte": 7039,
    "pop": 7040,
    "ping": 7041,
    "raccro": 7042,
    "sances": 7043,
    "tat": 7044,
    "vends": 7045,
    "épe": 7046,
    "équit": 7047,
    "évité": 7048,
    "aignées": 7049,
    "estement": 7050,
    "enva": 7051,
    "enlevé": 7052,
    "repose": 7053,
    "rechercher": 7054,
    "reconnaître": 7055,
    "revint": 7056,
    "refroi": 7057,
    "delà": 7058,
    "deviennent": 7059,
    "quere": 7060,
    "issant": 7061,
    "lage": 7062,
    "latin": 7063,
    "choisis": 7064,
    "tua": 7065,
    "tuy": 7066,
    "arros": 7067,
    "araignées": 7068,
    "tic": 7069,
    "titre": 7070,
    "tième": 7071,
    "mentez": 7072,
    "partent": 7073,
    "ciens": 7074,
    "ciation": 7075,
    "endur": 7076,
    "dénu": 7077,
    "asser": 7078,
    "poursuivre": 7079,
    "songe": 7080,
    "conté": 7081,
    "dut": 7082,
    "compassion": 7083,
    "réveille": 7084,
    "ater": 7085,
    "lées": 7086,
    "sachant": 7087,
    "seraient": 7088,
    "coopération": 7089,
    "peuple": 7090,
    "accès": 7091,
    "surmonter": 7092,
    "surveiller": 7093,
    "coule": 7094,
    "couler": 7095,
    "perdez": 7096,
    "prévoit": 7097,
    "cram": 7098,
    "excès": 7099,
    "porc": 7100,
    "pue": 7101,
    "disant": 7102,
    "mécan": 7103,
    "saisis": 7104,
    "gardi": 7105,
    "guée": 7106,
    "pensa": 7107,
    "solit": 7108,
    "marque": 7109,
    "march": 7110,
    "marchant": 7111,
    "cession": 7112,
    "valable": 7113,
    "piré": 7114,
    "pianiste": 7115,
    "impré": 7116,
    "fermier": 7117,
    "renon": 7118,
    "rences": 7119,
    "emboute": 7120,
    "front": 7121,
    "cerf": 7122,
    "menez": 7123,
    "jouet": 7124,
    "poèmes": 7125,
    "brise": 7126,
    "grève": 7127,
    "rêtons": 7128,
    "formidable": 7129,
    "cria": 7130,
    "bouil": 7131,
    "bouchon": 7132,
    "angle": 7133,
    "voyait": 7134,
    "voyiez": 7135,
    "simples": 7136,
    "haï": 7137,
    "déten": 7138,
    "détend": 7139,
    "sensation": 7140,
    "nuits": 7141,
    "réponds": 7142,
    "apprécies": 7143,
    "trahis": 7144,
    "tomates": 7145,
    "portail": 7146,
    "coln": 7147,
    "anglaise": 7148,
    "téléphonique": 7149,
    "sauvée": 7150,
    "croissance": 7151,
    "durs": 7152,
    "maladies": 7153,
    "rendons": 7154,
    "attendant": 7155,
    "arriverai": 7156,
    "échelle": 7157,
    "Arrêtons": 7158,
    "affamé": 7159,
    "essayerai": 7160,
    "respir": 7161,
    "quittez": 7162,
    "souciez": 7163,
    "coûtent": 7164,
    "sérieuses": 7165,
    "mordre": 7166,
    "serviettes": 7167,
    "inquiets": 7168,
    "allumée": 7169,
    "miles": 7170,
    "rug": 7171,
    "État": 7172,
    "apparent": 7173,
    "horri": 7174,
    "censées": 7175,
    "gagnera": 7176,
    "intéressantes": 7177,
    "épousa": 7178,
    "tromp": 7179,
    "indiqué": 7180,
    "généreux": 7181,
    "intelligents": 7182,
    "weekend": 7183,
    "montée": 7184,
    "entendîmes": 7185,
    "remarques": 7186,
    "expliquerai": 7187,
    "souhaitons": 7188,
    "opinions": 7189,
    "dangers": 7190,
    "réaliste": 7191,
    "infec": 7192,
    "bouteilles": 7193,
    "cellu": 7194,
    "débutant": 7195,
    "peinte": 7196,
    "géniale": 7197,
    "anciens": 7198,
    "augmenter": 7199,
    "recommande": 7200,
    "attirant": 7201,
    "améliore": 7202,
    "objets": 7203,
    "imaginais": 7204,
    "frigo": 7205,
    "jalous": 7206,
    "Inde": 7207,
    "réglé": 7208,
    "ennuyé": 7209,
    "liciter": 7210,
    "pension": 7211,
    "descends": 7212,
    "emmené": 7213,
    "arrivons": 7214,
    "graphie": 7215,
    "prononciation": 7216,
    "fréquemment": 7217,
    "réduit": 7218,
    "annoncé": 7219,
    "déçus": 7220,
    "ouvrages": 7221,
    "plaisanteries": 7222,
    "capacités": 7223,
    "craindre": 7224,
    "pénétré": 7225,
    "révélé": 7226,
    "horriblement": 7227,
    "dépourvue": 7228,
    "décédée": 7229,
    "Trouvez": 7230,
    "scand": 7231,
    "Verrou": 7232,
    "volontiers": 7233,
    "relations": 7234,
    "traîner": 7235,
    "semblables": 7236,
    "couverture": 7237,
    "insulte": 7238,
    "supplie": 7239,
    "Tourne": 7240,
    "Tournez": 7241,
    "vertige": 7242,
    "embrassée": 7243,
    "techno": 7244,
    "plaignent": 7245,
    "Cherchez": 7246,
    "Descendez": 7247,
    "...": 7248,
    "drapeau": 7249,
    "suspici": 7250,
    "solide": 7251,
    "déclen": 7252,
    "rideau": 7253,
    "déplacer": 7254,
    "hamburger": 7255,
    "limites": 7256,
    "Corri": 7257,
    "gamin": 7258,
    "psycho": 7259,
    "réussis": 7260,
    "interprète": 7261,
    "végétar": 7262,
    "chirurgien": 7263,
    "bordel": 7264,
    "pharmacie": 7265,
    "Lincoln": 7266,
    "coopérer": 7267,
    "individu": 7268,
    "embarrassant": 7269,
    "littérature": 7270,
    "choisit": 7271,
    "architec": 7272,
    "postale": 7273,
    "orthographe": 7274,
    "enfreint": 7275,
    "supérieur": 7276,
    "foiré": 7277,
    "Aussi": 7278,
    "Gu": 7279,
    "Lire": 7280,
    "Lève": 7281,
    "Pi": 7282,
    "Pr": 7283,
    "Pos": 7284,
    "aci": 7285,
    "atro": 7286,
    "by": 7287,
    "battent": 7288,
    "cac": 7289,
    "ctions": 7290,
    "carrière": 7291,
    "drait": 7292,
    "ey": 7293,
    "feux": 7294,
    "fût": 7295,
    "fall": 7296,
    "haus": 7297,
    "jur": 7298,
    "lor": 7299,
    "muni": 7300,
    "matis": 7301,
    "obile": 7302,
    "ppe": 7303,
    "tê": 7304,
    "ther": 7305,
    "ule": 7306,
    "vau": 7307,
    "vap": 7308,
    "zéro": 7309,
    "âne": 7310,
    "çailles": 7311,
    "ér": 7312,
    "étez": 7313,
    "échangé": 7314,
    "épin": 7315,
    "ailes": 7316,
    "redire": 7317,
    "revue": 7318,
    "recru": 7319,
    "relâ": 7320,
    "reproduire": 7321,
    "recherches": 7322,
    "recherchent": 7323,
    "reconnus": 7324,
    "quai": 7325,
    "degrés": 7326,
    "pation": 7327,
    "tembre": 7328,
    "aison": 7329,
    "labeur": 7330,
    "audit": 7331,
    "auront": 7332,
    "section": 7333,
    "avéra": 7334,
    "traites": 7335,
    "arr": 7336,
    "arro": 7337,
    "arade": 7338,
    "tine": 7339,
    "inti": 7340,
    "pardonnerai": 7341,
    "parlaient": 7342,
    "parking": 7343,
    "sir": 7344,
    "cile": 7345,
    "endrier": 7346,
    "dép": 7347,
    "décour": 7348,
    "déplace": 7349,
    "dégâ": 7350,
    "détruis": 7351,
    "pourras": 7352,
    "poursuivi": 7353,
    "cont": 7354,
    "confus": 7355,
    "concur": 7356,
    "ambas": 7357,
    "lique": 7358,
    "mpiques": 7359,
    "toubi": 7360,
    "appr": 7361,
    "apprendrai": 7362,
    "vir": 7363,
    "vions": 7364,
    "virée": 7365,
    "réd": 7366,
    "agez": 7367,
    "agac": 7368,
    "plut": 7369,
    "monta": 7370,
    "danseur": 7371,
    "ator": 7372,
    "servent": 7373,
    "serveur": 7374,
    "vrons": 7375,
    "maîtres": 7376,
    "accompagn": 7377,
    "surprend": 7378,
    "coudre": 7379,
    "Celles": 7380,
    "cure": 7381,
    "séparé": 7382,
    "préser": 7383,
    "excur": 7384,
    "exposé": 7385,
    "exclu": 7386,
    "vein": 7387,
    "veillé": 7388,
    "disque": 7389,
    "verse": 7390,
    "mélan": 7391,
    "radi": 7392,
    "arrivez": 7393,
    "postu": 7394,
    "pensées": 7395,
    "option": 7396,
    "cad": 7397,
    "cales": 7398,
    "otages": 7399,
    "marron": 7400,
    "marchait": 7401,
    "trouvons": 7402,
    "trouvaient": 7403,
    "donnent": 7404,
    "vali": 7405,
    "vul": 7406,
    "jusque": 7407,
    "huîtres": 7408,
    "courts": 7409,
    "gna": 7410,
    "troph": 7411,
    "soutiens": 7412,
    "fice": 7413,
    "fières": 7414,
    "minis": 7415,
    "ministre": 7416,
    "phé": 7417,
    "mené": 7418,
    "plai": 7419,
    "plend": 7420,
    "sortez": 7421,
    "aiderais": 7422,
    "comptez": 7423,
    "connaissances": 7424,
    "partagé": 7425,
    "crimes": 7426,
    "cées": 7427,
    "idéal": 7428,
    "insens": 7429,
    "ponnèrent": 7430,
    "écoles": 7431,
    "commençais": 7432,
    "hale": 7433,
    "entreprises": 7434,
    "inex": 7435,
    "enceinte": 7436,
    "arrêtiez": 7437,
    "sembler": 7438,
    "cing": 7439,
    "sorties": 7440,
    "priorités": 7441,
    "restera": 7442,
    "apprécions": 7443,
    "suivie": 7444,
    "fondée": 7445,
    "découvri": 7446,
    "habitudes": 7447,
    "écrivez": 7448,
    "Remets": 7449,
    "chantes": 7450,
    "modes": 7451,
    "attendra": 7452,
    "devenait": 7453,
    "mages": 7454,
    "Pars": 7455,
    "Parles": 7456,
    "utilisez": 7457,
    "chauve": 7458,
    "passerai": 7459,
    "tombés": 7460,
    "prenait": 7461,
    "affai": 7462,
    "poussa": 7463,
    "casquette": 7464,
    "Discu": 7465,
    "Disposes": 7466,
    "Salut": 7467,
    "clou": 7468,
    "laissés": 7469,
    "fauché": 7470,
    "giques": 7471,
    "proposé": 7472,
    "judi": 7473,
    "jugement": 7474,
    "camarade": 7475,
    "gâché": 7476,
    "accepta": 7477,
    "excusé": 7478,
    "calendrier": 7479,
    "book": 7480,
    "inquiétez": 7481,
    "obligez": 7482,
    "Appréci": 7483,
    "noter": 7484,
    "loup": 7485,
    "arrêtées": 7486,
    "résil": 7487,
    "dangereuse": 7488,
    "respecté": 7489,
    "japonaises": 7490,
    "souhaité": 7491,
    "coincée": 7492,
    "prépara": 7493,
    "dommages": 7494,
    "faciles": 7495,
    "compliquée": 7496,
    "second": 7497,
    "accusa": 7498,
    "sentiras": 7499,
    "ressemblez": 7500,
    "effrayant": 7501,
    "effrayés": 7502,
    "septembre": 7503,
    "mêler": 7504,
    "dossier": 7505,
    "comprendrais": 7506,
    "Franchement": 7507,
    "ancienne": 7508,
    "lycé": 7509,
    "direct": 7510,
    "compagnon": 7511,
    "économique": 7512,
    "adieux": 7513,
    "détestait": 7514,
    "brûler": 7515,
    "possibles": 7516,
    "imaginée": 7517,
    "tarder": 7518,
    "demandait": 7519,
    "ennuyeuse": 7520,
    "talents": 7521,
    "197": 7522,
    "exigé": 7523,
    "exigea": 7524,
    "véritables": 7525,
    "avertir": 7526,
    "trembler": 7527,
    "Jouez": 7528,
    "automatique": 7529,
    "automobile": 7530,
    "impressionnés": 7531,
    "Viend": 7532,
    "flexi": 7533,
    "tape": 7534,
    "cousine": 7535,
    "principale": 7536,
    "habitent": 7537,
    "chanceuses": 7538,
    "ponctuelle": 7539,
    "offensée": 7540,
    "nettoya": 7541,
    "Malgré": 7542,
    "allâmes": 7543,
    "écure": 7544,
    "particulière": 7545,
    "Souh": 7546,
    "consommer": 7547,
    "gêné": 7548,
    "moustiques": 7549,
    "abeilles": 7550,
    "dames": 7551,
    "approuvé": 7552,
    "Oubliez": 7553,
    "subir": 7554,
    "fiançailles": 7555,
    "qualifié": 7556,
    "hypnot": 7557,
    "menacé": 7558,
    "gosses": 7559,
    "commerciale": 7560,
    "statue": 7561,
    "Finissons": 7562,
    "photographie": 7563,
    "Américains": 7564,
    "cheter": 7565,
    "collège": 7566,
    "bruyant": 7567,
    "Coupe": 7568,
    "plombier": 7569,
    "impuissant": 7570,
    "introduit": 7571,
    "Attrape": 7572,
    "Buvez": 7573,
    "Raconte": 7574,
    "dessiner": 7575,
    "exercer": 7576,
    "extraordinaire": 7577,
    "fainéant": 7578,
    "siffler": 7579,
    "empirer": 7580,
    "baignoire": 7581,
    "insectes": 7582,
    "conséquences": 7583,
    "joyeux": 7584,
    "évoque": 7585,
    "imbécile": 7586,
    "absurde": 7587,
    "instrument": 7588,
    "pyjama": 7589,
    "paresseuse": 7590,
    "endommag": 7591,
    "majeure": 7592,
    "désastre": 7593,
    "shirt": 7594,
    "Facebook": 7595,
    "cramponnèrent": 7596,
    "scandale": 7597,
    "atroce": 7598,
    "dégâts": 7599,
    "toubib": 7600,
    "15": 7601,
    "25": 7602,
    "2h30": 7603,
    "Cali": 7604,
    "Faut": 7605,
    "His": 7606,
    "Nul": 7607,
    "Ple": 7608,
    "Resp": 7609,
    "SM": 7610,
    "So": 7611,
    "Sort": 7612,
    "Tôt": 7613,
    "atiques": 7614,
    "couvre": 7615,
    "dy": 7616,
    "dau": 7617,
    "eût": 7618,
    "fê": 7619,
    "fal": 7620,
    "flèche": 7621,
    "iment": 7622,
    "lois": 7623,
    "nante": 7624,
    "nôtres": 7625,
    "pèrent": 7626,
    "sar": 7627,
    "sti": 7628,
    "savions": 7629,
    "ventre": 7630,
    "Être": 7631,
    "çant": 7632,
    "échange": 7633,
    "épouvant": 7634,
    "aimi": 7635,
    "enla": 7636,
    "rece": 7637,
    "recu": 7638,
    "revenue": 7639,
    "omie": 7640,
    "traire": 7641,
    "arpe": 7642,
    "sueur": 7643,
    "tirent": 7644,
    "tiendr": 7645,
    "ori": 7646,
    "orage": 7647,
    "orient": 7648,
    "mentalement": 7649,
    "inu": 7650,
    "indis": 7651,
    "trem": 7652,
    "parfu": 7653,
    "parvenues": 7654,
    "étap": 7655,
    "rine": 7656,
    "riment": 7657,
    "sivement": 7658,
    "jetez": 7659,
    "cieuse": 7660,
    "dévou": 7661,
    "dépl": 7662,
    "décé": 7663,
    "dépasse": 7664,
    "dépou": 7665,
    "ash": 7666,
    "dir": 7667,
    "dite": 7668,
    "lion": 7669,
    "dule": 7670,
    "dures": 7671,
    "vire": 7672,
    "vides": 7673,
    "pluies": 7674,
    "biens": 7675,
    "ressentir": 7676,
    "ressemblait": 7677,
    "provo": 7678,
    "procé": 7679,
    "atoire": 7680,
    "tera": 7681,
    "sacri": 7682,
    "maligne": 7683,
    "survenait": 7684,
    "coutume": 7685,
    "perde": 7686,
    "migr": 7687,
    "ffé": 7688,
    "ffres": 7689,
    "rance": 7690,
    "séché": 7691,
    "séparer": 7692,
    "étéri": 7693,
    "crue": 7694,
    "voulions": 7695,
    "tables": 7696,
    "extir": 7697,
    "expul": 7698,
    "veine": 7699,
    "dist": 7700,
    "disparaître": 7701,
    "merde": 7702,
    "verte": 7703,
    "nera": 7704,
    "méd": 7705,
    "mément": 7706,
    "méchante": 7707,
    "raquette": 7708,
    "coupée": 7709,
    "guise": 7710,
    "pensée": 7711,
    "cacha": 7712,
    "nul": 7713,
    "gentiment": 7714,
    "trouvèrent": 7715,
    "partira": 7716,
    "pile": 7717,
    "chang": 7718,
    "trains": 7719,
    "enfi": 7720,
    "soupé": 7721,
    "europé": 7722,
    "fidèle": 7723,
    "minim": 7724,
    "frot": 7725,
    "commets": 7726,
    "aboy": 7727,
    "adminis": 7728,
    "restées": 7729,
    "briser": 7730,
    "brave": 7731,
    "gris": 7732,
    "gratte": 7733,
    "devrons": 7734,
    "diffère": 7735,
    "malins": 7736,
    "fornie": 7737,
    "comptes": 7738,
    "comptable": 7739,
    "presse": 7740,
    "essayait": 7741,
    "essayons": 7742,
    "empre": 7743,
    "log": 7744,
    "moments": 7745,
    "précieuse": 7746,
    "chienne": 7747,
    "répond": 7748,
    "asseyez": 7749,
    "Puisque": 7750,
    "champs": 7751,
    "jetée": 7752,
    "dernièrement": 7753,
    "trahie": 7754,
    "suivrai": 7755,
    "désobé": 7756,
    "fonda": 7757,
    "filé": 7758,
    "intéresserait": 7759,
    "dragu": 7760,
    "plié": 7761,
    "poliment": 7762,
    "accordé": 7763,
    "perdus": 7764,
    "rencontra": 7765,
    "production": 7766,
    "effets": 7767,
    "écouta": 7768,
    "Retire": 7769,
    "rendes": 7770,
    "rendus": 7771,
    "attendiez": 7772,
    "robinet": 7773,
    "orteils": 7774,
    "trib": 7775,
    "décid": 7776,
    "accordèrent": 7777,
    "bulle": 7778,
    "profité": 7779,
    "viendront": 7780,
    "écharpe": 7781,
    "fusil": 7782,
    "affam": 7783,
    "affreux": 7784,
    "ignorez": 7785,
    "explique": 7786,
    "lots": 7787,
    "discutons": 7788,
    "sourc": 7789,
    "sourn": 7790,
    "pareils": 7791,
    "souhaites": 7792,
    "lises": 7793,
    "chaussure": 7794,
    "gâcher": 7795,
    "décidée": 7796,
    "Apparemment": 7797,
    "neigé": 7798,
    "symp": 7799,
    "situations": 7800,
    "ignorance": 7801,
    "commencement": 7802,
    "appara": 7803,
    "loue": 7804,
    "prisonni": 7805,
    "envoyée": 7806,
    "envoyées": 7807,
    "compatis": 7808,
    "amoureuses": 7809,
    "tolé": 7810,
    "vivante": 7811,
    "vivantes": 7812,
    "lundis": 7813,
    "restaurants": 7814,
    "disposait": 7815,
    "endormit": 7816,
    "emprunte": 7817,
    "italien": 7818,
    "éteignit": 7819,
    "illages": 7820,
    "soufflé": 7821,
    "goûté": 7822,
    "suggérer": 7823,
    "expériment": 7824,
    "retire": 7825,
    "vérifi": 7826,
    "remarqua": 7827,
    "honnêtes": 7828,
    "bagno": 7829,
    "occasions": 7830,
    "blanches": 7831,
    "attendue": 7832,
    "compliment": 7833,
    "tombées": 7834,
    "stylos": 7835,
    "accusée": 7836,
    "accusèrent": 7837,
    "romantique": 7838,
    "singe": 7839,
    "copies": 7840,
    "grippe": 7841,
    "circonst": 7842,
    "populaires": 7843,
    "sucreries": 7844,
    "paierai": 7845,
    "économise": 7846,
    "contrariés": 7847,
    "contrariées": 7848,
    "détestais": 7849,
    "réserve": 7850,
    "embête": 7851,
    "réveillés": 7852,
    "tardi": 7853,
    "disparut": 7854,
    "démarré": 7855,
    "mandat": 7856,
    "générale": 7857,
    "effectivement": 7858,
    "pensions": 7859,
    "vendent": 7860,
    "escalier": 7861,
    "selfie": 7862,
    "reconnue": 7863,
    "assiettes": 7864,
    "herbes": 7865,
    "national": 7866,
    "interromps": 7867,
    "guérir": 7868,
    "suicide": 7869,
    "taper": 7870,
    "richesse": 7871,
    "compreniez": 7872,
    "principalement": 7873,
    "fixa": 7874,
    "habitait": 7875,
    "faillite": 7876,
    "aperç": 7877,
    "Verriez": 7878,
    "manuels": 7879,
    "brosser": 7880,
    "relativement": 7881,
    "collectionner": 7882,
    "vertiges": 7883,
    "séparées": 7884,
    "alimentation": 7885,
    "rembourser": 7886,
    "manifestement": 7887,
    "Retournez": 7888,
    "regretteras": 7889,
    "Éteignez": 7890,
    "rejoindrai": 7891,
    "Américain": 7892,
    "ingénieur": 7893,
    "terrain": 7894,
    "figure": 7895,
    "cambrioleur": 7896,
    "officier": 7897,
    "doucement": 7898,
    "chasser": 7899,
    "sangu": 7900,
    "grotte": 7901,
    "remporté": 7902,
    "ralentir": 7903,
    "enterré": 7904,
    "matériel": 7905,
    "avertis": 7906,
    "totalité": 7907,
    "chaîne": 7908,
    "Répondez": 7909,
    "onéreux": 7910,
    "Nett": 7911,
    "Remplissez": 7912,
    "sceptique": 7913,
    "essuya": 7914,
    "taxis": 7915,
    "effond": 7916,
    "surveillerai": 7917,
    "britanni": 7918,
    "férié": 7919,
    "ménagères": 7920,
    "abasourdi": 7921,
    "promotion": 7922,
    "oxygène": 7923,
    "proverbe": 7924,
    "humili": 7925,
    "solitaire": 7926,
    "respiration": 7927,
    "architecte": 7928,
    "falloir": 7929,
    "munitions": 7930,
    "arrêtes": 7931,
    "arrog": 7932,
    "intimité": 7933,
    "insensé": 7934,
    "Discutons": 7935,
    "Californie": 7936,
    "Respec": 7937,
    "Sortons": 7938,
    "parfum": 7939,
    "circonstances": 7940,
    "40": 7941,
    "80": 7942,
    "Brésil": 7943,
    "Cin": 7944,
    "Cal": 7945,
    "Gé": 7946,
    "Hon": 7947,
    "Hok": 7948,
    "Pra": 7949,
    "Russi": 7950,
    "Souv": 7951,
    "Sers": 7952,
    "ament": 7953,
    "bil": 7954,
    "blu": 7955,
    "bottes": 7956,
    "dation": 7957,
    "fout": 7958,
    "flan": 7959,
    "flot": 7960,
    "foyer": 7961,
    "gout": 7962,
    "hall": 7963,
    "ifri": 7964,
    "len": 7965,
    "laide": 7966,
    "mû": 7967,
    "mun": 7968,
    "mass": 7969,
    "noyer": 7970,
    "ocate": 7971,
    "paient": 7972,
    "pains": 7973,
    "pira": 7974,
    "ramené": 7975,
    "rétabli": 7976,
    "saut": 7977,
    "saine": 7978,
    "saign": 7979,
    "tai": 7980,
    "tau": 7981,
    "usez": 7982,
    "vom": 7983,
    "xophone": 7984,
    "ènes": 7985,
    "évent": 7986,
    "échant": 7987,
    "épreuve": 7988,
    "évolu": 7989,
    "êle": 7990,
    "oute": 7991,
    "encom": 7992,
    "encais": 7993,
    "reine": 7994,
    "reviennes": 7995,
    "remonte": 7996,
    "reproduira": 7997,
    "lev": 7998,
    "levez": 7999
}